{"[PAD]":0,"[UNK]":1,"[BOS]":2,"[EOS]":3,"[CLS]":4,"[SEP]":5,"[MASK]":6,"!":7,"#":8,"$":9,"%":10,"&":11,"(":12,")":13,"*":14,"+":15,",":16,"-":17,".":18,"/":19,"0":20,"1":21,"2":22,"3":23,"4":24,"5":25,"6":26,"7":27,"8":28,"9":29,":":30,";":31,"?":32,"@":33,"[":34,"\\":35,"]":36,"_":37,"a":38,"b":39,"c":40,"d":41,"e":42,"f":43,"g":44,"h":45,"i":46,"j":47,"k":48,"l":49,"m":50,"n":51,"o":52,"p":53,"q":54,"r":55,"s":56,"t":57,"u":58,"v":59,"w":60,"x":61,"y":62,"z":63,"{":64,"|":65,"}":66,"£":67,"¤":68,"¥":69,"¬":70,"¶":71,"¼":72,"Â":73,"Ã":74,"â":75,"Ġ":76,"Ĥ":77,"Ł":78,"Ġm":79,"Ġa":80,"Ġn":81,"Ġg":82,"Ġu":83,"Ġe":84,"Ġr":85,"Ġj":86,"Ġi":87,"Ġt":88,"Ġo":89,"Ġs":90,"Ġl":91,"Ġf":92,"Ġ1":93,"Ġ8":94,"Ġz":95,"Ġb":96,"Ġd":97,"Ġk":98,"ĠÃ":99,"Ġ¼":100,"Ġc":101,"Ġp":102,"ĠŁ":103,"Ġh":104,"Ġ¶":105,"Ġw":106,"Ġ¤":107,"Ġy":108,"Ġv":109,"Ġx":110,"Ġq":111,"Ġ5":112,"Ġ7":113,"Ġ9":114,"Ġ6":115,"Ġ2":116,"Ġ0":117,"Ġ4":118,"Ġ3":119,"Ġ_":120,"Ġ%":121,"Ġ/":122,"Ġ]":123,"Ġ,":124,"Ġ.":125,"Ġ*":126,"Ġ+":127,"Ġ)":128,"Ġ!":129,"Ġ-":130,"Ġ;":131,"Ġ:":132,"Ġ?":133,"Ġ\\":134,"Ġ(":135,"Ġâ":136,"ĠĤ":137,"Ġ¬":138,"Ġ{":139,"Ġ}":140,"Ġ#":141,"Ġ|":142,"Ġ[":143,"ĠÂ":144,"Ġ£":145,"Ġ$":146,"Ġ&":147,"Ġ@":148,"ĠĠ":149,"Ġ¥":150,"Ġen":151,"Ġer":152,"Ġin":153,"Ġch":154,"Ġth":155,"Ġan":156,"Ġon":157,"Ġes":158,"Ġun":159,"Ġis":160,"Ġit":161,"Ġat":162,"Ġthe":163,"Ġre":164,"Ġie":165,"Ġal":166,"Ġor":167,"Ġst":168,"Ġar":169,"Ġder":170,"Ġion":171,"Ġich":172,"Ġro":173,"Ġas":174,"Ġle":175,"Ġbe":176,"Ġte":177,"Ġand":178,"Ġau":179,"Ġge":180,"Ġent":181,"Ġof":182,"Ġein":183,"ĠÃ¼":184,"Ġde":185,"Ġto":186,"Ġdie":187,"Ġung":188,"Ġur":189,"Ġund":190,"ĠÃ¤":191,"Ġing":192,"Ġom":193,"Ġwi":194,"Ġden":195,"Ġver":196,"Ġse":197,"Ġig":198,"Ġll":199,"Ġic":200,"Ġsch":201,"Ġwe":202,"Ġim":203,"Ġam":204,"Ġter":205,"Ġzu":206,"Ġfor":207,"Ġed":208,"Ġation":209,"Ġber":210,"Ġten":211,"Ġeu":212,"Ġil":213,"Ġpro":214,"Ġol":215,"Ġab":216,"Ġdi":217,"Ġve":218,"Ġou":219,"Ġra":220,"Ġct":221,"Ġhr":222,"Ġgen":223,"ĠÃ¶":224,"Ġem":225,"Ġist":226,"Ġlich":227,"Ġpe":228,"Ġne":229,"Ġum":230,"ĠfÃ¼":231,"Ġso":232,"Ġdas":233,"Ġisch":234,"Ġcom":235,"Ġmit":236,"Ġke":237,"Ġno":238,"Ġcon":239,"Ġall":240,"Ġwir":241,"Ġut":242,"Ġicht":243,"Ġauf":244,"Ġpr":245,"Ġus":246,"Ġmen":247,"Ġier":248,"Ġest":249,"Ġce":250,"Ġwer":251,"Ġthat":252,"Ġeuro":253,"Ġdes":254,"Ġach":255,"Ġlo":256,"Ġvon":257,"Ġaus":258,"Ġwh":259,"Ġco":260,"Ġess":261,"ĠfÃ¼r":262,"Ġme":263,"Ġare":264,"ĠÃŁ":265,"Ġgr":266,"Ġla":267,"Ġhe":268,"Ġiss":269,"Ġly":270,"Ġir":271,"Ġul":272,"Ġts":273,"Ġmo":274,"Ġad":275,"Ġpar":276,"Ġtr":277,"Ġaf":278,"Ġdies":279,"Ġment":280,"Ġid":281,"Ġkt":282,"Ġma":283,"Ġeine":284,"Ġpo":285,"Ġges":286,"Ġwith":287,"Ġsu":288,"Ġif":289,"Ġort":290,"Ġck":291,"Ġper":292,"Ġate":293,"Ġvor":294,"Ġere":295,"Ġind":296,"Ġta":297,"Ġste":298,"Ġho":299,"Ġsie":300,"Ġungen":301,"Ġthis":302,"Ġtz":303,"Ġmiss":304,"Ġda":305,"Ġsp":306,"Ġischen":307,"Ġqu":308,"Ġha":309,"ĠÃ¼ber":310,"Ġld":311,"Ġex":312,"Ġdem":313,"Ġstr":314,"Ġies":315,"Ġour":316,"Ġive":317,"Ġiv":318,"Ġkom":319,"ĠÃ¤n":320,"Ġmission":321,"Ġze":322,"Ġben":323,"Ġ00":324,"Ġher":325,"Ġsich":326,"Ġity":327,"Ġfe":328,"Ġfa":329,"Ġnen":330,"Ġlie":331,"Ġnot":332,"Ġant":333,"Ġby":334,"Ġsen":335,"Ġwerden":336,"Ġser":337,"Ġib":338,"Ġunter":339,"Ġnicht":340,"Ġend":341,"Ġwor":342,"Ġman":343,"Ġli":344,"Ġap":345,"Ġinter":346,"Ġial":347,"Ġwill":348,"Ġop":349,"Ġger":350,"Ġeurop":351,"Ġfer":352,"Ġits":353,"Ġauch":354,"Ġah":355,"Ġres":356,"Ġdass":357,"Ġigen":358,"Ġeurope":359,"Ġag":360,"Ġschaf":361,"Ġdu":362,"Ġien":363,"Ġwie":364,"Ġions":365,"Ġport":366,"Ġungs":367,"Ġtra":368,"Ġfr":369,"Ġreg":370,"Ġbes":371,"Ġfin":372,"Ġther":373,"Ġdo":374,"Ġals":375,"Ġhave":376,"Ġpol":377,"Ġac":378,"Ġform":379,"Ġann":380,"Ġje":381,"Ġht":382,"Ġould":383,"Ġsh":384,"Ġwas":385,"Ġhal":386,"Ġlt":387,"Ġbei":388,"Ġpl":389,"Ġted":390,"Ġsit":391,"Ġik":392,"Ġyou":393,"Ġrom":394,"Ġtel":395,"Ġmar":396,"Ġbr":397,"Ġhen":398,"Ġhas":399,"Ġcoun":400,"Ġwhich":401,"Ġfo":402,"Ġust":403,"Ġpart":404,"Ġwar":405,"Ġwird":406,"Ġfrom":407,"Ġel":408,"Ġgo":409,"Ġsam":410,"Ġsta":411,"Ġup":412,"Ġeuropean":413,"Ġet":414,"Ġische":415,"Ġrech":416,"Ġsind":417,"Ġeiner":418,"Ġwo":419,"Ġern":420,"Ġfen":421,"Ġnach":422,"Ġident":423,"Ġbo":424,"ĠeuropÃ¤":425,"Ġzur":426,"Ġable":427,"Ġiel":428,"Ġcan":429,"Ġllen":430,"Ġkon":431,"Ġout":432,"Ġans":433,"Ġang":434,"Ġure":435,"Ġip":436,"Ġdur":437,"Ġlin":438,"Ġpa":439,"Ġmer":440,"Ġmin":441,"Ġft":442,"Ġlu":443,"Ġih":444,"Ġaben":445,"Ġone":446,"Ġhat":447,"Ġnation":448,"Ġbeit":449,"Ġstat":450,"Ġcommission":451,"Ġrat":452,"Ġpres":453,"Ġuss":454,"Ġeinen":455,"Ġland":456,"ĠÃ¼r":457,"Ġise":458,"Ġwen":459,"ĠÃ¶n":460,"Ġide":461,"Ġiz":462,"Ġken":463,"Ġhren":464,"Ġations":465,"Ġdr":466,"Ġkeit":467,"Ġweit":468,"Ġlichen":469,"Ġange":470,"Ġgro":471,"Ġwa":472,"Ġaten":473,"Ġction":474,"Ġ200":475,"Ġill":476,"Ġschaft":477,"ĠmÃ¶":478,"Ġia":479,"Ġult":480,"Ġass":481,"Ġige":482,"Ġnational":483,"Ġament":484,"Ġalso":485,"Ġdurch":486,"ĠÃ¤r":487,"Ġleg":488,"Ġple":489,"Ġhaben":490,"Ġsy":491,"Ġtre":492,"Ġner":493,"Ġfre":494,"Ġpre":495,"Ġdar":496,"Ġdern":497,"Ġunion":498,"Ġhmen":499,"Ġkommission":500,"ĠkÃ¶n":501,"Ġoder":502,"Ġinc":503,"Ġbere":504,"Ġspe":505,"Ġage":506,"Ġff":507,"Ġds":508,"Ġgem":509,"Ġally":510,"Ġanz":511,"Ġob":512,"Ġwork":513,"Ġsel":514,"Ġding":515,"Ġarbeit":516,"Ġthere":517,"Ġprodu":518,"Ġteil":519,"Ġbar":520,"Ġsten":521,"Ġice":522,"Ġalle":523,"Ġhand":524,"Ġember":525,"Ġpolit":526,"Ġheit":527,"Ġuns":528,"Ġja":529,"Ġdiese":530,"Ġcess":531,"Ġson":532,"Ġear":533,"Ġated":534,"Ġvo":535,"Ġdis":536,"Ġmon":537,"Ġsa":538,"Ġance":539,"Ġart":540,"ĠÃ¶r":541,"ĠÃ¤t":542,"Ġue":543,"ĠwÃ¤":544,"Ġog":545,"Ġ..":546,"Ġous":547,"Ġers":548,"Ġliche":549,"Ġhin":550,"Ġche":551,"Ġbl":552,"Ġstem":553,"Ġow":554,"Ġwur":555,"Ġbut":556,"Ġprogr":557,"Ġander":558,"Ġmore":559,"Ġieren":560,"Ġble":561,"Ġmember":562,"Ġigh":563,"Ġank":564,"ĠÃ¤s":565,"Ġinst":566,"Ġtro":567,"Ġzeit":568,"Ġvery":569,"Ġish":570,"Ġary":571,"ĠÃ¼n":572,"Ġmr":573,"Ġcial":574,"Ġkann":575,"Ġtet":576,"Ġko":577,"Ġfra":578,"Ġeinem":579,"Ġrit":580,"Ġical":581,"Ġiert":582,"ĠeuropÃ¤ischen":583,"Ġsystem":584,"Ġfol":585,"Ġstand":586,"Ġinform":587,"Ġnew":588,"Ġother":589,"Ġbu":590,"Ġpla":591,"Ġign":592,"Ġhl":593,"Ġition":594,"Ġgeb":595,"Ġpos":596,"Ġtheir":597,"Ġens":598,"Ġneu":599,"Ġtim":600,"Ġight":601,"Ġ19":602,"Ġkl":603,"Ġprov":604,"Ġhotel":605,"Ġglie":606,"Ġgesch":607,"Ġherr":608,"Ġys":609,"Ġord":610,"Ġins":611,"Ġese":612,"Ġimm":613,"ĠkÃ¶nnen":614,"Ġnow":615,"Ġpu":616,"Ġzum":617,"Ġwould":618,"Ġuse":619,"ĠÃ¼s":620,"Ġpt":621,"Ġug":622,"Ġcil":623,"Ġsol":624,"Ġgel":625,"Ġnah":626,"Ġgan":627,"Ġprogram":628,"Ġbeen":629,"Ġihre":630,"Ġwenn":631,"Ġyour":632,"Ġgre":633,"Ġking":634,"Ġutz":635,"Ġsuch":636,"Ġunder":637,"Ġmitglie":638,"Ġbet":639,"Ġcountr":640,"Ġierung":641,"Ġome":642,"Ġglich":643,"Ġod":644,"Ġef":645,"Ġdieser":646,"Ġile":647,"Ġmehr":648,"Ġvie":649,"Ġ20":650,"Ġments":651,"Ġctive":652,"Ġgu":653,"Ġcent":654,"Ġserv":655,"Ġgegen":656,"Ġshould":657,"Ġities":658,"Ġite":659,"Ġinv":660,"Ġdire":661,"Ġgt":662,"Ġine":663,"ĠlÃ¤n":664,"Ġms":665,"Ġmat":666,"Ġstell":667,"Ġded":668,"Ġution":669,"Ġthey":670,"Ġase":671,"Ġgemein":672,"Ġard":673,"Ġbest":674,"Ġev":675,"Ġwirt":676,"Ġnur":677,"Ġany":678,"Ġsup":679,"Ġents":680,"Ġak":681,"Ġnet":682,"Ġcre":683,"Ġbil":684,"Ġihr":685,"ĠprÃ¤s":686,"Ġchn":687,"Ġgese":688,"Ġvelo":689,"Ġigkeit":690,"Ġmun":691,"Ġcl":692,"ĠÃ¼ck":693,"Ġtzt":694,"Ġces":695,"Ġstaaten":696,"Ġfir":697,"Ġstates":698,"Ġthese":699,"Ġdevelo":700,"Ġcts":701,"Ġsoll":702,"Ġcons":703,"Ġchen":704,"Ġentwi":705,"Ġreich":706,"Ġfore":707,"Ġtt":708,"Ġnehmen":709,"ĠfÃ¼hr":710,"Ġahl":711,"Ġdevelop":712,"Ġcur":713,"Ġinformation":714,"Ġnoch":715,"Ġian":716,"Ġong":717,"Ġcr":718,"Ġast":719,"Ġmitglied":720,"Ġzw":721,"Ġunser":722,"Ġblic":723,"Ġschen":724,"Ġkommen":725,"Ġmust":726,"Ġproble":727,"Ġsicher":728,"Ġcouncil":729,"Ġgrund":730,"Ġfl":731,"Ġktion":732,"Ġaber":733,"Ġstru":734,"Ġister":735,"Ġzusam":736,"Ġwho":737,"Ġcy":738,"Ġoper":739,"ĠprÃ¤sident":740,"Ġwelt":741,"Ġinternational":742,"Ġsib":743,"Ġci":744,"Ġzusammen":745,"Ġire":746,"Ġpor":747,"Ġricht":748,"Ġcomp":749,"Ġzie":750,"ĠdaÃŁ":751,"Ġyear":752,"Ġnis":753,"Ġph":754,"Ġty":755,"Ġtechn":756,"Ġverb":757,"Ġced":758,"Ġleich":759,"Ġbal":760,"Ġdam":761,"Ġregion":762,"Ġweiter":763,"Ġkr":764,"Ġket":765,"Ġbesch":766,"Ġative":767,"Ġvers":768,"Ġlle":769,"Ġerg":770,"Ġfu":771,"Ġsein":772,"ĠmÃ¼s":773,"Ġsub":774,"Ġpf":775,"Ġassen":776,"Ġures":777,"Ġors":778,"ĠÃŁen":779,"Ġover":780,"Ġcht":781,"Ġlike":782,"Ġenz":783,"Ġolog":784,"Ġconom":785,"Ġital":786,"Ġpresident":787,"Ġmittel":788,"Ġateg":789,"Ġwurde":790,"Ġvorsch":791,"ĠfÃ¤":792,"Ġsetz":793,"Ġonly":794,"Ġckl":795,"Ġeconom":796,"Ġmal":797,"Ġact":798,"Ġneed":799,"Ġfall":800,"Ġbis":801,"Ġeng":802,"ĠmÃ¼ssen":803,"Ġbas":804,"Ġposit":805,"Ġtime":806,"Ġlegen":807,"Ġqual":808,"Ġvis":809,"ĠmÃ¶glich":810,"Ġjust":811,"ĠitÃ¤t":812,"Ġdeut":813,"Ġjahr":814,"Ġied":815,"Ġific":816,"Ġtain":817,"Ġigt":818,"Ġsome":819,"Ġame":820,"Ġav":821,"Ġpolic":822,"Ġsche":823,"Ġks":824,"Ġparl":825,"Ġalt":826,"Ġular":827,"Ġget":828,"Ġeines":829,"Ġhn":830,"Ġint":831,"Ġmed":832,"Ġkte":833,"Ġnat":834,"Ġsed":835,"Ġimport":836,"Ġba":837,"Ġtrans":838,"Ġabout":839,"Ġonder":840,"Ġorgan":841,"Ġparlament":842,"Ġiven":843,"Ġiger":844,"ĠmaÃŁ":845,"Ġwicht":846,"Ġxt":847,"Ġentwickl":848,"Ġagre":849,"Ġcountries":850,"Ġwhat":851,"Ġliament":852,").":853,"Ġimmer":854,"Ġater":855,"ĠstÃ¼":856,"Ġparliament":857,"Ġviel":858,"Ġele":859,"Ġcommun":860,"Ġ10":861,"Ġdiesem":862,"ĠeuropÃ¤ische":863,"Ġbereich":864,"Ġchte":865,"Ġrel":866,"Ġcour":867,"Ġices":868,"Ġility":869,"Ġmitgliedstaaten":870,"Ġious":871,"Ġwel":872,"Ġhow":873,"Ġio":874,"Ġforder":875,"Ġatz":876,"Ġmost":877,"Ġfort":878,"Ġlos":879,"Ġwell":880,"Ġcor":881,"Ġpartic":882,"Ġgest":883,"Ġuch":884,"Ġgleich":885,"Ġproje":886,"Ġdet":887,"Ġway":888,"Ġhol":889,"Ġual":890,"Ġperson":891,"Ġday":892,"Ġsehr":893,"Ġinto":894,"Ġgar":895,"Ġcar":896,"Ġwhen":897,"Ġhier":898,"Ġhalten":899,"Ġpeop":900,"Ġoff":901,"Ġmany":902,"Ġzwischen":903,"Ġmy":904,"Ġenerg":905,"Ġsicht":906,"Ġtho":907,"Ġiden":908,"Ġminister":909,"Ġemp":910,"Ġustr":911,"Ġdien":912,"ĠstÃ¤n":913,"Ġdieses":914,"Ġstellen":915,"ĠÃŁer":916,"Ġbesonder":917,"Ġnahmen":918,"Ġcle":919,"Ġcau":920,"Ġinvest":921,"ĠÃ¶ff":922,"Ġtern":923,"Ġmach":924,"Ġreport":925,"Ġpon":926,"Ġfirst":927,"Ġview":928,"Ġail":929,"Ġdec":930,"ĠunterstÃ¼":931,"Ġibt":932,"Ġok":933,"Ġgeben":934,"Ġating":935,"ĠwÃ¤hr":936,"Ġnung":937,"Ġings":938,"Ġorder":939,"Ġfinanz":940,"ĠhÃ¶r":941,"Ġism":942,"Ġbin":943,"Ġcome":944,"Ġmarket":945,"Ġcont":946,"Ġlage":947,"Ġigung":948,"Ġgener":949,"Ġzwe":950,"ĠÃ¤u":951,"Ġpublic":952,"Ġjo":953,"Ġsupport":954,"Ġdemo":955,"Ġfund":956,"Ġween":957,"Ġthem":958,"Ġsowie":959,"Ġtell":960,"Ġschl":961,"Ġbetween":962,"Ġwn":963,"Ġindustr":964,"Ġconc":965,"Ġisten":966,"Ġpen":967,"Ġschlie":968,"Ġpeople":969,"Ġbericht":970,"Ġseit":971,"Ġworld":972,"Ġives":973,"Ġ199":974,"Ġweise":975,"Ġster":976,"Ġthan":977,"Ġwirk":978,"Ġvel":979,"Ġunternehmen":980,"Ġrequ":981,"Ġwere":982,"Ġgh":983,"Ġhalt":984,"Ġpolicy":985,"Ġtrag":986,"Ġhigh":987,"Ġvent":988,"Ġroug":989,"Ġaga":990,"Ġdition":991,"Ġstrateg":992,"Ġcommit":993,"Ġread":994,"Ġru":995,"Ġles":996,"Ġentr":997,"Ġfest":998,"ĠÃ¤nder":999,"Ġnor":1000,"Ġbus":1001,"Ġfrau":1002,"Ġwend":1003,"Ġinclu":1004,"Ġural":1005,"Ġvom":1006,"Ġhel":1007,"Ġpun":1008,"Ġeconomic":1009,"Ġieden":1010,"Ġale":1011,"Ġrest":1012,"Ġmenschen":1013,"Ġvern":1014,"Ġory":1015,"Ġmain":1016,"Ġgew":1017,"ĠÃ¤tz":1018,"Ġement":1019,"Ġbewer":1020,"Ġinstit":1021,"Ġhalb":1022,"Ġlau":1023,"Ġider":1024,"Ġdevelopment":1025,"Ġakt":1026,"Ġbel":1027,"Ġsible":1028,"Ġzial":1029,"Ġga":1030,"Ġsin":1031,"Ġsitu":1032,"ĠmÃ¶chte":1033,"Ġloc":1034,"Ġbie":1035,"Ġleben":1036,"Ġwhere":1037,"Ġimportant":1038,"Ġheu":1039,"Ġarge":1040,"Ġcause":1041,"Ġtake":1042,"Ġzug":1043,"),":1044,"Ġeuropa":1045,"Ġpra":1046,"ĠmaÃŁnahmen":1047,"Ġtion":1048,"Ġvir":1049,"Ġstaat":1050,"Ġroom":1051,"Ġcol":1052,"Ġdeb":1053,"Ġsee":1054,"Ġhum":1055,"Ġdif":1056,"Ġence":1057,"Ġpri":1058,"Ġhaus":1059,"Ġziel":1060,"Ġzahl":1061,"Ġweb":1062,"Ġmay":1063,"Ġende":1064,"Ġreas":1065,"Ġrecht":1066,"Ġights":1067,"Ġmake":1068,"Ġfun":1069,"Ġred":1070,"Ġeffe":1071,"Ġihnen":1072,"Ġfur":1073,"Ġpolitik":1074,"Ġpartner":1075,"Ġhil":1076,"Ġffic":1077,"Ġzeu":1078,"Ġsame":1079,"Ġschafts":1080,"Ġps":1081,"Ġunsere":1082,"Ġoffer":1083,"Ġpropos":1084,"Ġisation":1085,"Ġos":1086,"Ġfact":1087,"Ġrei":1088,"ĠwÃ¼r":1089,"Ġissen":1090,"Ġihrer":1091,"Ġrough":1092,"Ġunden":1093,"Ġfahren":1094,"Ġcted":1095,"Ġfahr":1096,"Ġbau":1097,"Ġgroup":1098,"Ġrespon":1099,"Ġair":1100,"Ġreal":1101,"Ġstu":1102,"Ġtwo":1103,"Ġverein":1104,"Ġgra":1105,"Ġmarkt":1106,"ĠunterstÃ¼tz":1107,"Ġknow":1108,"Ġnt":1109,"Ġplan":1110,"Ġtur":1111,"Ġdamit":1112,"ĠhÃ¶":1113,"Ġmuss":1114,"Ġversch":1115,"Ġled":1116,"Ġnum":1117,"Ġjed":1118,"Ġgovern":1119,"Ġbre":1120,"Ġthrough":1121,"Ġgibt":1122,"Ġentwicklung":1123,"Ġhere":1124,"Ġrechts":1125,"Ġcer":1126,"Ġerung":1127,"Ġafter":1128,"ĠÃ¶ffent":1129,"Ġfinan":1130,"Ġline":1131,"Ġthen":1132,"Ġparticular":1133,"Ġtem":1134,"ĠschlieÃŁ":1135,"Ġhis":1136,"Ġvol":1137,"Ġoperation":1138,"ĠÃ¤ch":1139,"Ġhuman":1140,"Ġpress":1141,"Ġpet":1142,"Ġbecause":1143,"Ġbeste":1144,"ĠstÃ¤nd":1145,"Ġbrauch":1146,"Ġyears":1147,"Ġmade":1148,"Ġlag":1149,"Ġfull":1150,"Ġsk":1151,"Ġcond":1152,"Ġient":1153,"Ġkeine":1154,"Ġrahmen":1155,"Ġler":1156,"Ġpresent":1157,"Ġtext":1158,"Ġeben":1159,"Ġischer":1160,"Ġbring":1161,"Ġwieder":1162,"Ġmill":1163,"Ġbeg":1164,"Ġprote":1165,"Ġsof":1166,"Ġprogramm":1167,"Ġanderen":1168,"Ġthose":1169,"Ġimple":1170,"Ġconcern":1171,"Ġrent":1172,"Ġclear":1173,"ĠÃ¤m":1174,"Ġwach":1175,"Ġdan":1176,"Ġsport":1177,"Ġlang":1178,"Ġfar":1179,"Ġpriv":1180,"Ġute":1181,"Ġinte":1182,"Ġistr":1183,"Ġlast":1184,"Ġstate":1185,"Ġallen":1186,"Ġtran":1187,"Ġitt":1188,"Ġiti":1189,"Ġmeas":1190,"Ġtechnolog":1191,"Ġhowe":1192,"Ġited":1193,"ĠtrÃ¤":1194,"Ġzeich":1195,"Ġalth":1196,"Ġwes":1197,"Ġhau":1198,"Ġware":1199,"Ġful":1200,"Ġwort":1201,"Ġwohl":1202,"Ġintegr":1203,"Ġtung":1204,"Ġhandel":1205,"Ġeven":1206,"Ġsocial":1207,"Ġglo":1208,"ĠÃ¼rger":1209,"Ġregul":1210,"Ġsure":1211,"Ġrif":1212,"Ġbank":1213,"Ġgung":1214,"Ġdat":1215,"Ġument":1216,"Ġfrage":1217,"Ġwurden":1218,"Ġamer":1219,"Ġevery":1220,"Ġtee":1221,"Ġprocess":1222,"Ġfam":1223,"Ġthing":1224,"Ġtal":1225,"Ġues":1226,"Ġbs":1227,"Ġtens":1228,"Ġhowever":1229,"ĠitÃ¤":1230,"Ġschutz":1231,"Ġina":1232,"Ġship":1233,"Ġval":1234,"ĠfÃ¶r":1235,"Ġfach":1236,"Ġcap":1237,"Ġvoll":1238,"Ġwirtschaft":1239,"Ġsozial":1240,"Ġuni":1241,"Ġchan":1242,"Ġsprech":1243,"Ġfinden":1244,"ĠbÃ¼rger":1245,"Ġright":1246,"Ġium":1247,"Ġsituation":1248,"Ġbst":1249,"Ġris":1250,"Ġsign":1251,"Ġdiesen":1252,"Ġurs":1253,"Ġentsche":1254,"Ġplay":1255,"Ġdiffer":1256,"Ġput":1257,"Ġting":1258,"Ġcontin":1259,"Ġabl":1260,"Ġposition":1261,"Ġrights":1262,"Ġloy":1263,"Ġservices":1264,"Ġkel":1265,"ĠhÃ¤":1266,"Ġlevel":1267,"Ġstellung":1268,"Ġfolgen":1269,"Ġaller":1270,"Ġsite":1271,"ĠverfÃ¼":1272,"Ġoch":1273,"Ġzentr":1274,"ĠÃ¶s":1275,"Ġleist":1276,"Ġviron":1277,"Ġheute":1278,"Ġctor":1279,"Ġnam":1280,"Ġaussch":1281,"Ġffen":1282,"Ġfil":1283,"Ġausge":1284,"Ġkehr":1285,"Ġprogramme":1286,"Ġstehen":1287,"Ġessen":1288,"Ġenviron":1289,"Ġtherefore":1290,"Ġbild":1291,"Ġneue":1292,"Ġglobal":1293,"Ġproblem":1294,"Ġauth":1295,"Ġexper":1296,"Ġstar":1297,"ĠgroÃŁ":1298,"Ġquest":1299,"Ġaccess":1300,"Ġhad":1301,"Ġiniti":1302,"Ġict":1303,"Ġfle":1304,"Ġven":1305,"ĠprÃ¼":1306,"Ġdann":1307,"Ġkun":1308,"Ġset":1309,"in":1310,"Ġommen":1311,"Ġkle":1312,"Ġarea":1313,"Ġbeing":1314,"Ġatt":1315,"Ġappro":1316,"Ġiness":1317,"Ġweil":1318,"Ġprovide":1319,"Ġhne":1320,"Ġservice":1321,"Ġenvironment":1322,"Ġisen":1323,"Ġna":1324,"Ġcept":1325,"Ġcommunity":1326,"Ġlagen":1327,"Ġgesam":1328,"Ġ15":1329,"Ġllow":1330,"Ġstra":1331,"Ġju":1332,"Ġless":1333,"Ġplace":1334,"Ġss":1335,"Ġpossible":1336,"Ġchange":1337,"Ġgehen":1338,"Ġaum":1339,"Ġdecis":1340,"Ġbestimm":1341,"Ġganz":1342,"Ġletz":1343,"Ġjedoch":1344,"Ġters":1345,"Ġply":1346,"Ġbur":1347,"Ġplic":1348,"Ġoc":1349,"Ġability":1350,"Ġktur":1351,"Ġwithin":1352,"Ġihren":1353,"Ġseine":1354,"ĠfÃ¼hren":1355,"Ġisl":1356,"Ġdel":1357,"ĠlÃ¤nder":1358,"Ġzen":1359,"Ġren":1360,"Ġlinie":1361,"Ġbed":1362,"Ġpolitical":1363,"Ġbesondere":1364,"Ġbelie":1365,"Ġsm":1366,"Ġcompet":1367,"Ġregel":1368,"Ġbereit":1369,"Ġchar":1370,"Ġmanage":1371,"Ġneuen":1372,"Ġsur":1373,"ĠstÃ¤r":1374,"Ġopen":1375,"Ġfind":1376,"Ġitions":1377,"Ġnumber":1378,"Ġved":1379,"ĠhÃ¤n":1380,"Ġlicher":1381,"Ġves":1382,"Ġgestell":1383,"Ġschrit":1384,"Ġhandl":1385,"Ġflu":1386,"Ġca":1387,"Ġfinancial":1388,"Ġagainst":1389,"Ġselbst":1390,"Ġraft":1391,"Ġprof":1392,"Ġkre":1393,"Ġindi":1394,"Ġbusiness":1395,"Ġvi":1396,"Ġlaw":1397,"Ġcomple":1398,"Ġadop":1399,"Ġboth":1400,"...":1401,"Ġauto":1402,"Ġvar":1403,"Ġfurther":1404,"Ġsi":1405,"Ġec":1406,"Ġinner":1407,"Ġ12":1408,"Ġmich":1409,"Ġown":1410,"Ġhar":1411,"Ġwichtig":1412,"Ġfut":1413,"Ġbereits":1414,"Ġauthor":1415,"Ġobje":1416,"Ġangen":1417,"Ġredu":1418,"Ġick":1419,"Ġbegr":1420,"Ġbetr":1421,"Ġque":1422,"Ġkol":1423,"Ġused":1424,"Ġconsider":1425,"Ġexam":1426,"Ġstre":1427,"Ġtreat":1428,"Ġert":1429,"Ġlassen":1430,"Ġpunkt":1431,"Ġutions":1432,"Ġfamil":1433,"ĠgrÃ¶":1434,"Ġdy":1435,"Ġemploy":1436,"Ġsollte":1437,"Ġmillion":1438,"Ġmeasures":1439,"Ġagreement":1440,"Ġmus":1441,"Ġnutz":1442,"Ġclo":1443,"Ġot":1444,"Ġdaten":1445,"Ġcould":1446,"Ġready":1447,"Ġsim":1448,"Ġzusammenarbeit":1449,"Ġgood":1450,"Ġleit":1451,"Ġverfahren":1452,"Ġfair":1453,"Ġats":1454,"Ġdoes":1455,"Ġaction":1456,"Ġates":1457,"Ġbit":1458,"Ġavail":1459,"Ġreform":1460,"Ġink":1461,"Ġinnen":1462,"Ġban":1463,"Ġalen":1464,"ĠÃ¤ft":1465,"Ġough":1466,"Ġierten":1467,"Ġcit":1468,"ĠfÃ¼hrt":1469,"ĠlÃ¤ndern":1470,"Ġeigen":1471,"Ġspra":1472,"Ġdazu":1473,"Ġnahme":1474,"Ġfragen":1475,"Ġards":1476,"Ġstruct":1477,"Ġdown":1478,"Ġwissen":1479,"Ġcurrent":1480,"Ġinternet":1481,"Ġsor":1482,"Ġkey":1483,"Ġnie":1484,"Ġfree":1485,"Ġnov":1486,"Ġpoint":1487,"Ġlarge":1488,"Ġverkehr":1489,"Ġsaf":1490,"ĠÃ¤ÃŁ":1491,"Ġmil":1492,"Ġpat":1493,"Ġker":1494,"Ġdenen":1495,"Ġkten":1496,"Ġsehen":1497,"ĠmÃ¶glichkeit":1498,"Ġbro":1499,"Ġfollow":1500,"ĠklÃ¤r":1501,"Ġunserer":1502,"Ġkrat":1503,"Ġcas":1504,"Ġbud":1505,"Ġthre":1506,"Ġinn":1507,"Ġsatz":1508,"Ġwert":1509,"Ġsetzung":1510,"Ġspa":1511,"Ġrag":1512,"Ġaut":1513,"Ġcing":1514,"Ġmor":1515,"ĠauÃŁer":1516,"Ġohne":1517,"Ġverbess":1518,"Ġstad":1519,"Ġzwei":1520,"Ġwett":1521,"Ġving":1522,"Ġti":1523,"Ġrequire":1524,"Ġsollten":1525,"Ġsecur":1526,"Ġreichen":1527,"Ġ...":1528,"Ġgemeinsam":1529,"Ġhabe":1530,"Ġprior":1531,"Ġspec":1532,"Ġsondern":1533,"Ġime":1534,"Ġuck":1535,"Ġsoft":1536,"Ġep":1537,"Ġouse":1538,"Ġgebie":1539,"Ġrespe":1540,"Ġierte":1541,"Ġjahren":1542,"Ġrechte":1543,"Ġfuture":1544,"Ġpect":1545,"Ġests":1546,"Ġkur":1547,"Ġbeits":1548,"Ġandere":1549,"Ġimplement":1550,"Ġsicherheit":1551,"Ġcommittee":1552,"Ġcontro":1553,"Ġised":1554,"Ġtoday":1555,"Ġunt":1556,"Ġgreat":1557,"Ġpower":1558,"Ġsc":1559,"Ġenth":1560,"Ġwettbewer":1561,"Ġics":1562,"Ġstill":1563,"Ġdirect":1564,"Ġback":1565,"Ġisp":1566,"Ġnisse":1567,"Ġkosten":1568,"Ġsince":1569,"Ġenergy":1570,"Ġont":1571,"Ġimin":1572,"Ġlong":1573,"Ġantwort":1574,"Ġdienst":1575,"Ġcertain":1576,"Ġune":1577,"Ġself":1578,"Ġinstr":1579,"Ġumwelt":1580,"Ġarbeits":1581,"Ġbuil":1582,"Ġ50":1583,"Ġspiel":1584,"Ġcountry":1585,"Ġvorschlag":1586,"Ġweg":1587,"Ġabil":1588,"Ġinnov":1589,"Ġdesign":1590,"Ġwithout":1591,"Ġoffen":1592,"Ġinsbesondere":1593,"Ġaid":1594,"Ġproducts":1595,"Ġwaren":1596,"Ġsetzen":1597,"Ġhelp":1598,"ĠÃ¶l":1599,"Ġavailable":1600,"Ġinformationen":1601,"Ġktor":1602,"Ġvan":1603,"Ġcommon":1604,"Ġgeneral":1605,"Ġants":1606,"Ġgesell":1607,"Ġruss":1608,"ĠkÃ¼n":1609,"Ġkes":1610,"Ġlegal":1611,"Ġpal":1612,"Ġwant":1613,"Ġvid":1614,"Ġagr":1615,"Ġtrib":1616,"Ġproz":1617,"Ġsystems":1618,"Ġmeet":1619,"Ġsay":1620,"Ġmu":1621,"Ġarch":1622,"Ġdirective":1623,"Ġcommissioner":1624,"Ġlif":1625,"Ġquality":1626,"Ġsecurity":1627,"Ġumf":1628,"Ġalready":1629,"Ġalog":1630,"Ġ13":1631,"ĠÃ¤f":1632,"Ġproposal":1633,"Ġviele":1634,"Ġcase":1635,"Ġzel":1636,"Ġdifferent":1637,"Ġordnung":1638,"Ġsto":1639,"Ġfalls":1640,"Ġlow":1641,"Ġbefore":1642,"Ġfung":1643,"Ġlegisl":1644,"Ġpur":1645,"Ġbeisp":1646,"Ġmuch":1647,"Ġlet":1648,"Ġvention":1649,"ĠfÃ¶rder":1650,"Ġcust":1651,"Ġgrow":1652,"Ġgestellt":1653,"Ġcooperation":1654,"Ġstruktur":1655,"Ġtag":1656,"Ġrates":1657,"Ġverschieden":1658,"Ġator":1659,"Ġhm":1660,"Ġhist":1661,"Ġexp":1662,"Ġules":1663,"ĠkÃ¶nn":1664,"Ġablish":1665,"Ġerfol":1666,"Ġdarauf":1667,"Ġpass":1668,"Ġfrei":1669,"Ġsho":1670,"Ġfehl":1671,"Ġcitiz":1672,"Ġask":1673,"Ġtour":1674,"200":1675,"Ġheiten":1676,"Ġbeding":1677,"Ġbezie":1678,"Ġcustom":1679,"Ġsan":1680,"Ġchten":1681,"Ġtransport":1682,"Ġzo":1683,"Ġdata":1684,"Ġ11":1685,"Ġade":1686,"Ġinstitution":1687,"Ġaur":1688,"Ġgovernment":1689,"Ġmanagement":1690,"Ġheits":1691,"Ġdruck":1692,"Ġnun":1693,"Ġenter":1694,"Ġjor":1695,"Ġenden":1696,"Ġstadt":1697,"ĠsÃ¤tz":1698,"Ġulture":1699,"Ġzimmer":1700,"Ġeinige":1701,"Ġlim":1702,"Ġdemokrat":1703,"Ġmachen":1704,"Ġactiv":1705,"ĠfÃ¤h":1706,"Ġstimm":1707,"Ġhealth":1708,"Ġdoch":1709,"Ġshow":1710,"Ġcho":1711,"Ġwirtschafts":1712,"Ġlichkeit":1713,"Ġestablish":1714,"Ġlon":1715,"Ġhouse":1716,"Ġwahl":1717,"Ġpflich":1718,"Ġtele":1719,"Ġjetzt":1720,"Ġnecess":1721,"Ġctions":1722,"Ġspecial":1723,"Ġduring":1724,"ĠgrÃ¼n":1725,"Ġapplic":1726,"Ġric":1727,"Ġisierung":1728,"Ġ30":1729,"ĠfÃ¼hrung":1730,"Ġtrade":1731,"Ġdaher":1732,"Ġinde":1733,"Ġdemoc":1734,"Ġordin":1735,"Ġgeht":1736,"com":1737,"Ġachie":1738,"ĠwÃ¤hrend":1739,"Ġensure":1740,"Ġamend":1741,"Ġbasis":1742,"Ġprotection":1743,"Ġhilfe":1744,"Ġkontro":1745,"Ġierungs":1746,"Ġagen":1747,"Ġrefer":1748,"Ġeach":1749,"Ġdisc":1750,"Ġriften":1751,"Ġlegt":1752,"Ġkar":1753,"Ġdenn":1754,"Ġvertre":1755,"Ġmissar":1756,"Ġrichtlinie":1757,"Ġgut":1758,"Ġgrup":1759,"Ġaccoun":1760,"Ġons":1761,"Ġliegt":1762,"Ġalten":1763,"Ġturn":1764,"ĠdafÃ¼r":1765,"Ġlossen":1766,"Ġpay":1767,"Ġposed":1768,"Ġareas":1769,"Ġcost":1770,"Ġallow":1771,"Ġberich":1772,"Ġbt":1773,"Ġbudget":1774,"Ġfon":1775,"Ġzer":1776,"Ġacht":1777,"Ġsteu":1778,"Ġrich":1779,"Ġseiner":1780,"Ġways":1781,"Ġgent":1782,"Ġmajor":1783,"Ġgemeinschaft":1784,"Ġtaken":1785,"Ġists":1786,"Ġrap":1787,"Ġismus":1788,"Ġ18":1789,"Ġconsum":1790,"Ġgang":1791,"Ġrules":1792,"Ġbeispiel":1793,"Ġstreng":1794,"ĠlÃ¶s":1795,"Ġenergie":1796,"Ġential":1797,"Ġincluding":1798,"Ġwhile":1799,"Ġquestion":1800,"Ġterr":1801,"Ġeinzel":1802,"Ġentscheid":1803,"Ġregional":1804,"Ġspl":1805,"Ġness":1806,"Ġvertrag":1807,"Ġraum":1808,"Ġkin":1809,"Ġsuc":1810,"Ġigten":1811,"ĠwÃ¼rde":1812,"ĠerklÃ¤r":1813,"Ġeur":1814,"Ġearch":1815,"Ġmein":1816,"Ġersten":1817,"Ġstellt":1818,"Ġindivid":1819,"Ġcro":1820,"Ġkam":1821,"Ġdefin":1822,"ĠunterstÃ¼tzung":1823,"Ġmembers":1824,"Ġgl":1825,"Ġsum":1826,"Ġcall":1827,"Ġdom":1828,"Ġorganisation":1829,"Ġmult":1830,"Ġgn":1831,"Ġsaid":1832,"Ġresearch":1833,"Ġtoo":1834,"Ġcentr":1835,"Ġjah":1836,"Ġwal":1837,"Ġblick":1838,"Ġsing":1839,"Ġhalts":1840,"Ġcompan":1841,"Ġfully":1842,"Ġcourse":1843,"Ġcitizens":1844,"Ġmobil":1845,"Ġresol":1846,"Ġmut":1847,"Ġession":1848,"Ġbietet":1849,"Ġaddition":1850,"Ġlauf":1851,"Ġframe":1852,"Ġliegen":1853,"Ġmeine":1854,"Ġfig":1855,"Ġwind":1856,"ĠiÃŁ":1857,"Ġmir":1858,"Ġschne":1859,"Ġanal":1860,"Ġsecond":1861,"Ġ14":1862,"Ġpp":1863,"ĠzurÃ¼ck":1864,"Ġkommissar":1865,"Ġward":1866,"Ġports":1867,"Ġbelieve":1868,"Ġages":1869,"Ġprinc":1870,"Ġcontrol":1871,"Ġfass":1872,"Ġgesetz":1873,"Ġsitz":1874,"Ġtun":1875,"Ġhoch":1876,"Ġschaften":1877,"Ġsagen":1878,"Ġnecessary":1879,"Ġincreas":1880,"ĠgrÃ¶ÃŁ":1881,"Ġstim":1882,"Ġold":1883,"Ġhaf":1884,"Ġeinfach":1885,"Ġdabei":1886,"Ġtax":1887,"Ġspan":1888,"Ġcity":1889,"Ġrestaur":1890,"Ġhungen":1891,"ĠwÃ¤r":1892,"Ġequ":1893,"Ġcannot":1894,"Ġically":1895,"Ġining":1896,"Ġmodern":1897,"Ġfast":1898,"Ġzweit":1899,"Ġdig":1900,"Ġience":1901,"Ġstatt":1902,"ĠdarÃ¼ber":1903,"Ġcontrib":1904,"Ġ2009":1905,"Ġthree":1906,"Ġ000":1907,"Ġproced":1908,"Ġbon":1909,"Ġsoftware":1910,"Ġissue":1911,"Ġdra":1912,"Ġmater":1913,"Ġgrenz":1914,"Ġweitere":1915,"Ġately":1916,"Ġay":1917,"Ġhof":1918,"Ġworden":1919,"Ġjahre":1920,"Ġstart":1921,"Ġchil":1922,"Ġton":1923,"Ġpromo":1924,"Ġeinge":1925,"Ġix":1926,"Ġry":1927,"Ġschluss":1928,"ĠbehÃ¶r":1929,"Ġbess":1930,"Ġuc":1931,"Ġverbrauch":1932,"Ġsou":1933,"Ġdecision":1934,"Ġhung":1935,"Ġeg":1936,"Ġrooms":1937,"Ġarbeiten":1938,"Ġtes":1939,"Ġpack":1940,"Ġschon":1941,"Ġdate":1942,"Ġthank":1943,"Ġvorschriften":1944,"Ġmb":1945,"Ġforsch":1946,"Ġbetre":1947,"Ġsmall":1948,"Ġspecific":1949,"Ġthink":1950,"00":1951,"Ġmeans":1952,"Ġible":1953,"Ġdialog":1954,"Ġield":1955,"Ġrele":1956,"Ġcke":1957,"Ġnon":1958,"Ġabge":1959,"Ġresult":1960,"Ġente":1961,"Ġbeim":1962,"Ġpers":1963,"Ġnal":1964,"Ġtop":1965,"Ġprove":1966,"ĠbeschÃ¤ft":1967,"Ġgesetzt":1968,"Ġcolle":1969,"Ġwebsite":1970,"Ġasse":1971,"Ġivil":1972,"Ġird":1973,"Ġverw":1974,"Ġuten":1975,"Ġtragen":1976,"Ġeig":1977,"Ġfindet":1978,"Ġexample":1979,"Ġframework":1980,"Ġdrei":1981,"Ġka":1982,"Ġified":1983,"Ġgesund":1984,"Ġkauf":1985,"ĠnatÃ¼r":1986,"Ġlebens":1987,"Ġpract":1988,"Ġsector":1989,"Ġallem":1990,"Ġschul":1991,"ĠschlieÃŁlich":1992,"Ġproblems":1993,"Ġabkommen":1994,"Ġlands":1995,"Ġsom":1996,"Ġaim":1997,"Ġared":1998,"Ġmt":1999,"Ġcover":2000,"Ġsour":2001,"Ġlis":2002,"Ġnotwend":2003,"Ġherrn":2004,"Ġktionen":2005,"Ġcommunic":2006,"Ġgiven":2007,"Ġregierung":2008,"Ġwendung":2009,"Ġemployment":2010,"Ġgangen":2011,"Ġglichen":2012,"Ġwhe":2013,"Ġlog":2014,"Ġpop":2015,"Ġopport":2016,"Ġultural":2017,"Ġgesellschaft":2018,"Ġelle":2019,"Ġasso":2020,"Ġigkeiten":2021,"Ġcal":2022,"Ġnext":2023,"Ġsteht":2024,"Ġopportun":2025,"Ġverantwort":2026,"ĠmÃ¼":2027,"Ġbot":2028,"Ġergeb":2029,"Ġpolitischen":2030,"Ġdio":2031,"Ġiving":2032,"ĠgewÃ¤hr":2033,"Ġmaterial":2034,"Ġomen":2035,"Ġinvol":2036,"Ġcompany":2037,"Ġeas":2038,"Ġdeshalb":2039,"Ġkunft":2040,"Ġiff":2041,"Ġclus":2042,"Ġders":2043,"Ġbringen":2044,"ĠfrÃ¼":2045,"Ġwollen":2046,"Ġtranspar":2047,"Ġsuccess":2048,"Ġkunden":2049,"Ġily":2050,"Ġtar":2051,"Ġseite":2052,"Ġparlaments":2053,"Ġually":2054,"Ġbedeut":2055,"Ġace":2056,"ĠhÃ¤lt":2057,"Ġfound":2058,"Ġwards":2059,"ĠitÃ¤ten":2060,"Ġerhalten":2061,"Ġdeta":2062,"Ġunited":2063,"Ġelt":2064,"Ġrece":2065,"Ġinen":2066,"Ġ25":2067,"ĠkÃ¤m":2068,"Ġ16":2069,"Ġrepresent":2070,"Ġconta":2071,"Ġwed":2072,"Ġbased":2073,"Ġerst":2074,"Ġindustrie":2075,"Ġtradition":2076,"ĠlÃ¤":2077,"Ġwhy":2078,"Ġimmt":2079,"Ġcken":2080,"Ġletzten":2081,"Ġversion":2082,"Ġiter":2083,"Ġhlen":2084,"Ġgere":2085,"Ġises":2086,"Ġbenef":2087,"Ġentsprech":2088,"Ġines":2089,"ĠÃ¤hr":2090,"pro":2091,"Ġsal":2092,"Ġaccount":2093,"ĠzÃ¼":2094,"Ġstit":2095,"Ġmot":2096,"Ġprogress":2097,"Ġolit":2098,"Ġlife":2099,"Ġri":2100,"Ġuntersch":2101,"Ġlead":2102,"Ġglau":2103,"Ġfollowing":2104,"Ġgrowth":2105,"Ġpot":2106,"Ġhang":2107,"Ġoffers":2108,"Ġgive":2109,"Ġrange":2110,"Ġimprove":2111,"Ġgoti":2112,"Ġerforder":2113,"Ġpost":2114,"Ġgend":2115,"Ġworking":2116,"Ġschein":2117,"Ġuk":2118,"Ġrichtung":2119,"Ġinternationalen":2120,"ĠgehÃ¶r":2121,"Ġiten":2122,"Ġconditions":2123,"ĠrÃ¼ck":2124,"Ġbetter":2125,"Ġheraus":2126,"Ġsequ":2127,"Ġderzeit":2128,"Ġrecent":2129,"Ġcompanies":2130,"Ġpend":2131,"ĠlÃ¤s":2132,"Ġnetz":2133,"Ġdebate":2134,"Ġpersonal":2135,"Ġcam":2136,"Ġeffective":2137,"Ġadopted":2138,"Ġstum":2139,"Ġhaupt":2140,"Ġfield":2141,"Ġfisch":2142,"Ġnegoti":2143,"Ġkap":2144,"Ġliber":2145,"Ġwahr":2146,"Ġchina":2147,"Ġmand":2148,"Ġissues":2149,"Ġreco":2150,"Ġ2010":2151,"Ġgenommen":2152,"Ġthird":2153,"Ġleistungen":2154,"Ġek":2155,"Ġlat":2156,"Ġdarf":2157,"Ġiety":2158,"Ġlight":2159,"ĠprÃ¤":2160,"Ġhaushalts":2161,"Ġkets":2162,"Ġcourt":2163,"Ġbedingungen":2164,"Ġwater":2165,"Ġtreaty":2166,"Ġii":2167,"ĠabhÃ¤n":2168,"Ġtats":2169,"Ġized":2170,"Ġged":2171,"Ġklar":2172,"Ġbedeutung":2173,"Ġinitiative":2174,"Ġsibility":2175,"Ġappe":2176,"Ġsolid":2177,"Ġverpflich":2178,"Ġneeds":2179,"Ġmerk":2180,"Ġreach":2181,"Ġclose":2182,"Ġdiscuss":2183,"Ġmark":2184,"Ġagric":2185,"Ġdings":2186,"Ġmove":2187,"Ġderen":2188,"Ġationen":2189,"Ġcks":2190,"Ġbi":2191,"Ġesse":2192,"Ġguar":2193,"Ġproduction":2194,"Ġwasser":2195,"Ġindustry":2196,"Ġrole":2197,"Ġlik":2198,"Ġprivate":2199,"Ġmad":2200,"Ġteilung":2201,"Ġjen":2202,"Ġgether":2203,"Ġstandards":2204,"Ġbede":2205,"Ġwelche":2206,"Ġusing":2207,"Ġ2007":2208,"Ġwhether":2209,"Ġunseren":2210,"Ġorganis":2211,"Ġvertr":2212,"Ġtogether":2213,"Ġlea":2214,"Ġhalf":2215,"Ġintegration":2216,"Ġstabil":2217,"Ġoking":2218,"Ġexist":2219,"Ġprodukt":2220,"Ġller":2221,"Ġonline":2222,"Ġcentral":2223,"Ġperi":2224,"Ġichte":2225,"Ġvereinbar":2226,"Ġgabe":2227,"Ġ2008":2228,"Ġaspe":2229,"Ġinterest":2230,"Ġache":2231,"Ġira":2232,"Ġaro":2233,"Ġname":2234,"Ġsubje":2235,"Ġning":2236,"Ġesen":2237,"Ġrolle":2238,"ĠmÃ¤r":2239,"Ġwand":2240,"Ġ2000":2241,"Ġterror":2242,"Ġlines":2243,"Ġsoc":2244,"Ġwachstum":2245,"Ġ17":2246,"Ġalled":2247,"Ġgenau":2248,"Ġgas":2249,"Ġwerk":2250,"Ġtigen":2251,"000":2252,"Ġhistor":2253,"Ġtungen":2254,"Ġregulation":2255,"Ġvier":2256,"Ġihrem":2257,"Ġides":2258,"Ġparte":2259,"ĠvÃ¶l":2260,"Ġikel":2261,"Ġrespect":2262,"Ġporte":2263,"Ġbesteht":2264,"Ġnetwork":2265,"Ġasch":2266,"Ġneh":2267,"Ġauen":2268,"Ġanother":2269,"Ġbieten":2270,"Ġutes":2271,"Ġprozess":2272,"Ġflex":2273,"Ġahn":2274,"Ġwegen":2275,"Ġdon":2276,"Ġyo":2277,"Ġjan":2278,"Ġtage":2279,"Ġstain":2280,"Ġigr":2281,"Ġtermin":2282,"Ġying":2283,"Ġdays":2284,"Ġstrategy":2285,"Ġconne":2286,"Ġforderungen":2287,"Ġsever":2288,"Ġjob":2289,"Ġwettbewerbs":2290,"Ġfacil":2291,"Ġcrit":2292,"ĠgeschÃ¤f":2293,"Ġcially":2294,"Ġlocal":2295,"Ġpoin":2296,"Ġusa":2297,"Ġfew":2298,"Ġgericht":2299,"Ġsingle":2300,"Ġterms":2301,"Ġths":2302,"ĠtrÃ¤ge":2303,"Ġcentre":2304,"Ġmod":2305,"Ġauthorities":2306,"Ġuments":2307,"Ġdef":2308,"Ġprobleme":2309,"Ġorig":2310,"ĠabhÃ¤ng":2311,"Ġetwas":2312,"Ġzept":2313,"Ġcell":2314,"Ġaktiv":2315,"Ġdistr":2316,"Ġcontinue":2317,"Ġbrit":2318,"Ġfood":2319,"Ġdisk":2320,"Ġwish":2321,"Ġvision":2322,"Ġhope":2323,"Ġhead":2324,"ĠÃ¤nderungs":2325,"Ġcare":2326,"Ġulation":2327,"Ġhome":2328,"Ġburg":2329,"Ġbildung":2330,"Ġparticularly":2331,"Ġeinmal":2332,"Ġgaben":2333,"Ġabsch":2334,"Ġnamen":2335,"Ġshall":2336,"Ġapproach":2337,"ĠwÃ¤re":2338,"Ġls":2339,"ĠrÃ¤n":2340,"Ġartikel":2341,"Ġagain":2342,"Ġeduc":2343,"Ġinstall":2344,"Ġhandelt":2345,"Ġinvestment":2346,"Ġresour":2347,"Ġparticip":2348,"Ġerken":2349,"Ġitor":2350,"Ġmacht":2351,"Ġgreif":2352,"Ġgesehen":2353,"Ġanzu":2354,"Ġdeutsch":2355,"Ġgemeinsamen":2356,"Ġpark":2357,"Ġmet":2358,"Ġstimmung":2359,"ĠnatÃ¼rlich":2360,"Ġdid":2361,"Ġika":2362,"Ġistance":2363,"ĠnÃ¤ch":2364,"Ġincre":2365,"Ġviews":2366,"Ġbeteil":2367,"Ġzugang":2368,"Ġberu":2369,"Ġadmin":2370,"Ġbra":2371,"Ġpose":2372,"Ġmechan":2373,"Ġention":2374,"Ġfassung":2375,"Ġinnerhalb":2376,"Ġising":2377,"Ġreser":2378,"Ġtaking":2379,"Ġlab":2380,"Ġcris":2381,"Ġseinen":2382,"Ġsteuer":2383,"Ġlook":2384,"ĠkÃ¶nnte":2385,"Ġ24":2386,"ĠvorschlÃ¤":2387,"ĠĤ¬":2388,"Ġshe":2389,"Ġsowohl":2390,"Ġety":2391,"Ġcommen":2392,"Ġagt":2393,"Ġikan":2394,"Ġvide":2395,"Ġverwen":2396,"Ġcomplete":2397,"Ġproject":2398,"Ġdoc":2399,"Ġnehmer":2400,"ĠÃ¤um":2401,"Ġmel":2402,"Ġbeach":2403,"Ġdress":2404,"Ġpact":2405,"ĠgroÃŁe":2406,"Ġleicht":2407,"Ġanges":2408,"Ġimplementation":2409,"Ġaffair":2410,"Ġteam":2411,"Ġhotels":2412,"Ġshort":2413,"Ġverhandl":2414,"Ġlux":2415,"Ġkrit":2416,"Ġfficient":2417,"Ġeren":2418,"Ġbetrie":2419,"Ġcommissions":2420,"ĠgroÃŁen":2421,"Ġorigin":2422,"Ġapart":2423,"Ġliefer":2424,"Ġlegislation":2425,"ĠauÃŁerdem":2426,"Ġches":2427,"Ġopin":2428,"ĠgegenÃ¼ber":2429,"Ġcomes":2430,"Ġpreis":2431,"Ġcompetition":2432,"Ġgesamt":2433,"Ġwirklich":2434,"Ġpage":2435,"Ġfrieden":2436,"Ġkraft":2437,"Ġmilit":2438,"Ġicle":2439,"Ġproper":2440,"Ġprojects":2441,"ĠmÃ¤ÃŁ":2442,"Ġcontra":2443,"Ġaltung":2444,"Ġslo":2445,"Ġtest":2446,"Ġsafety":2447,"Ġdiffic":2448,"Ġimate":2449,"Ġschwi":2450,"Ġregard":2451,"Ġkommt":2452,"Ġactivities":2453,"Ġelect":2454,"Ġvote":2455,"Ġbestehen":2456,"ĠmuÃŁ":2457,"ĠunterstÃ¼tzen":2458,"Ġdifficult":2459,"Ġschwer":2460,"Ġpersonen":2461,"Ġschwe":2462,"Ġbekann":2463,"Ġcrisis":2464,"Ġseiten":2465,"Ġwrit":2466,"Ġinfra":2467,"ĠbehÃ¶rden":2468,"Ġeducation":2469,"ĠdÃ¼r":2470,"Ġperiod":2471,"Ġatives":2472,"Ġinstitutions":2473,"Ġased":2474,"Ġgelegt":2475,"Ġlocated":2476,"Ġsele":2477,"Ġzeigt":2478,"Ġeinz":2479,"Ġped":2480,"Ġorg":2481,"ĠkÃ¼":2482,"Ġfunktion":2483,"Ġfrist":2484,"Ġintro":2485,"Ġameric":2486,"Ġguaran":2487,"Ġiben":2488,"Ġantrag":2489,"Ġsustain":2490,"Ġdavon":2491,"Ġbenutz":2492,"Ġforeign":2493,"Ġstrategie":2494,"Ġreason":2495,"Ġforce":2496,"Ġfis":2497,"Ġkor":2498,"Ġnationalen":2499,"Ġterstat":2500,"Ġaffairs":2501,"Ġultur":2502,"Ġchildr":2503,"Ġhervor":2504,"Ġprom":2505,"Ġeinzu":2506,"Ġfas":2507,"Ġextre":2508,"Ġumsetzung":2509,"Ġron":2510,"Ġintrodu":2511,"Ġbecome":2512,"Ġflo":2513,"Ġbill":2514,"ĠgefÃ¼hrt":2515,"Ġcoming":2516,"Ġuring":2517,"Ġentwicklungs":2518,"Ġkommun":2519,"ĠâĤ¬":2520,"Ġfortschrit":2521,"Ġpan":2522,"Ġamong":2523,"Ġausschuss":2524,"Ġmeiner":2525,"Ġva":2526,"Ġbesonders":2527,"Ġunde":2528,"Ġthema":2529,"Ġvoraus":2530,"Ġaround":2531,"Ġfrauen":2532,"Ġferenz":2533,"Ġiges":2534,"Ġzukunft":2535,"Ġgrundlage":2536,"ĠsÃ¼":2537,"Ġweisen":2538,"Ġacc":2539,"Ġzusammenhang":2540,"ĠfÃ¶rderung":2541,"Ġteile":2542,"Ġerzeu":2543,"Ġtowards":2544,"ĠÃ¤d":2545,"Ġsektor":2546,"Ġvious":2547,"Ġcording":2548,"Ġements":2549,"Ġffiz":2550,"Ġbezug":2551,"Ġ60":2552,"th":2553,"Ġmeer":2554,"Ġberichterstat":2555,"Ġww":2556,"ĠbegrÃ¼":2557,"or":2558,"Ġbour":2559,"Ġincrease":2560,"Ġverbind":2561,"Ġonce":2562,"Ġstay":2563,"Ġeconomy":2564,"Ġ40":2565,"Ġhy":2566,"Ġaccept":2567,"20":2568,"Ġspolit":2569,"Ġences":2570,"Ġclu":2571,"Ġgerman":2572,"Ġalways":2573,"Ġsignific":2574,"Ġpresiden":2575,"Ġerwar":2576,"Ġkinder":2577,"Ġbitte":2578,"Ġpeace":2579,"Ġxim":2580,"Ġpolitische":2581,"Ġvour":2582,"Ġjahres":2583,"ĠbekÃ¤m":2584,"Ġlist":2585,"ĠÃ¶ffentlichen":2586,"Ġdeal":2587,"Ġwide":2588,"Ġroad":2589,"Ġbuch":2590,"Ġ100":2591,"Ġverbraucher":2592,"Ġklim":2593,"Ġize":2594,"Ġerreichen":2595,"Ġzwar":2596,"ĠgÃ¤":2597,"ĠtÃ¤t":2598,"Ġentlich":2599,"Ġnu":2600,"Ġgoing":2601,"Ġdessen":2602,"ĠverfÃ¼gung":2603,"Ġiple":2604,"Ġdemocrat":2605,"ĠlÃ¶sung":2606,"Ġdit":2607,"Ġhinaus":2608,"Ġprofession":2609,"Ġension":2610,"Ġplease":2611,"Ġprovis":2612,"Ġgegeben":2613,"Ġring":2614,"Ġtroffen":2615,"Ġproduct":2616,"Ġadvan":2617,"Ġtyp":2618,"Ġpolicies":2619,"ĠmÃ¶glichkeiten":2620,"Ġcreate":2621,"Ġtechnology":2622,"ĠitÃ¤ts":2623,"Ġentfer":2624,"Ġsubject":2625,"Ġkollegen":2626,"Ġziele":2627,"Ġwhole":2628,"Ġhard":2629,"Ġvarious":2630,"Ġhim":2631,"Ġenjo":2632,"Ġdirekt":2633,"Ġhes":2634,"Ġsprache":2635,"Ġespe":2636,"Ġaddress":2637,"Ġvill":2638,"Ġkein":2639,"Ġeast":2640,"Ġfonds":2641,"Ġragen":2642,"Ġleisten":2643,"Ġassoci":2644,"Ġblo":2645,"Ġresources":2646,"Ġenvironmental":2647,"Ġaffe":2648,"Ġresolution":2649,"Ġreview":2650,"Ġifiz":2651,"Ġgs":2652,"Ġvice":2653,"Ġteilen":2654,"Ġdou":2655,"Ġnatur":2656,"Ġances":2657,"Ġalles":2658,"Ġstandard":2659,"Ġwomen":2660,"Ġlack":2661,"Ġproposals":2662,"Ġmind":2663,"Ġschaffen":2664,"Ġably":2665,"Ġpub":2666,"Ġategor":2667,"Ġground":2668,"Ġvisit":2669,"Ġgenann":2670,"Ġsollen":2671,"Ġfrank":2672,"Ġkan":2673,"Ġplatz":2674,"Ġweiterhin":2675,"Ġils":2676,"Ġsett":2677,"Ġiken":2678,"Ġification":2679,"Ġface":2680,"Ġished":2681,"Ġhatte":2682,"Ġgene":2683,"Ġselves":2684,"Ġproposed":2685,"Ġanim":2686,"Ġdeci":2687,"Ġverschiedenen":2688,"Ġseveral":2689,"Ġexperience":2690,"Ġinstrument":2691,"Ġkind":2692,"Ġbinnen":2693,"Ġfour":2694,"Ġrapporte":2695,"Ġeffiz":2696,"Ġespecially":2697,"Ġmass":2698,"Ġmaking":2699,"de":2700,"Ġyet":2701,"Ġsw":2702,"Ġauer":2703,"Ġunehmen":2704,"Ġdemand":2705,"Ġallgem":2706,"Ġvia":2707,"Ġword":2708,"Ġativen":2709,"Ġbreak":2710,"Ġenten":2711,"Ġmatter":2712,"Ġfoc":2713,"Ġkultur":2714,"Ġief":2715,"ĠverstÃ¤nd":2716,"Ġmrs":2717,"ĠqualitÃ¤t":2718,"Ġaz":2719,"Ġmom":2720,"ĠgÃ¼":2721,"Ġrestaurant":2722,"Ġstrong":2723,"Ġults":2724,"Ġconstit":2725,"Ġpfung":2726,"Ġwohn":2727,"Ġvielen":2728,"Ġautomat":2729,"Ġtig":2730,"Ġicial":2731,"Ġost":2732,"Ġinternal":2733,"Ġschwier":2734,"ĠgeschÃ¤fts":2735,"Ġconfer":2736,"Ġchildren":2737,"Ġfavour":2738,"Ġpho":2739,"Ġfundament":2740,"Ġdort":2741,"Ġabo":2742,"Ġlinien":2743,"Ġels":2744,"Ġisches":2745,"Ġnutzen":2746,"Ġcu":2747,"Ġforts":2748,"ĠtÃ¼r":2749,"ĠÃŁe":2750,"Ġload":2751,"Ġaccording":2752,"Ġ2006":2753,"Ġmeeting":2754,"Ġtraining":2755,"Ġweis":2756,"Ġane":2757,"Ġerste":2758,"Ġfolge":2759,"Ġverkehrs":2760,"Ġalter":2761,"Ġbeiden":2762,"Ġaff":2763,"ĠkÃ¼nft":2764,"Ġsprechen":2765,"Ġ80":2766,"Ġurch":2767,"Ġierungen":2768,"Ġevent":2769,"Ġcher":2770,"Ġstaats":2771,"Ġmess":2772,"ĠÃ¼cksicht":2773,"Ġserious":2774,"ĠberÃ¼cksicht":2775,"Ġbig":2776,"Ġversuch":2777,"ĠfÃ¤higkeit":2778,"Ġachieve":2779,"Ġjeder":2780,"Ġwest":2781,"Ġpositive":2782,"Ġrecommen":2783,"Ġcompetit":2784,"Ġconcerned":2785,"Ġregions":2786,"Ġforward":2787,"Ġprovided":2788,"Ġpresidency":2789,"Ġones":2790,"Ġfunds":2791,"Ġgeld":2792,"Ġheb":2793,"Ġappropri":2794,"Ġstructure":2795,"Ġsichtlich":2796,"Ġifft":2797,"Ġples":2798,"Ġmarkets":2799,"Ġoren":2800,"Ġumfassen":2801,"Ġkm":2802,"Ġsociety":2803,"Ġverl":2804,"Ġhandels":2805,"Ġeigenen":2806,"Ġadd":2807,"Ġleis":2808,"Ġming":2809,"Ġberg":2810,"Ġoptim":2811,"Ġtool":2812,"Ġgermany":2813,"Ġdro":2814,"Ġisra":2815,"Ġnear":2816,"Ġbereichen":2817,"Ġgebiet":2818,"Ġfri":2819,"Ġactive":2820,"Ġsuper":2821,"ĠnÃ¤":2822,"Ġwirtschaftlichen":2823,"Ġequip":2824,"Ġreicht":2825,"Ġamo":2826,"Ġfel":2827,"Ġharmon":2828,"Ġsignificant":2829,"Ġneten":2830,"Ġebene":2831,"Ġsubst":2832,"Ġaffen":2833,"ĠÃ¤uÃŁer":2834,"Ġjustice":2835,"Ġprodukte":2836,"Ġlangu":2837,"Ġcompu":2838,"Ġcivil":2839,"Ġhinter":2840,"Ġoney":2841,"Ġza":2842,"Ġprin":2843,"Ġweltweit":2844,"Ġdone":2845,"Ġiver":2846,"ver":2847,"Ġuser":2848,"Ġmitt":2849,"Ġanst":2850,"Ġproved":2851,"Ġobject":2852,"Ġetwa":2853,"Ġfeat":2854,"ĠlÃ¤nd":2855,"Ġilt":2856,"Ġatte":2857,"Ġopinion":2858,"Ġunge":2859,"Ġaufgrund":2860,"Ġnachhalt":2861,"ĠauÃŁen":2862,"Ġallerdings":2863,"Ġtotal":2864,"Ġ--":2865,"ĠbÃ¼":2866,"Ġemiss":2867,"Ġkrise":2868,"Ġars":2869,"Ġimportance":2870,"Ġfront":2871,"Ġformen":2872,"Ġhor":2873,"Ġangelegen":2874,"Ġindividual":2875,"Ġdok":2876,"Ġization":2877,"Ġdigital":2878,"Ġfs":2879,"Ġdrit":2880,"Ġunderstand":2881,"Ġefforts":2882,"Ġprocedure":2883,"ĠzusÃ¤tz":2884,"Ġunterschied":2885,"Ġbahn":2886,"Ġtreten":2887,"Ġidence":2888,"Ġleast":2889,"Ġjoint":2890,"Ġmode":2891,"Ġgelegen":2892,"ĠÃ¶ffentlich":2893,"Ġexpress":2894,"Ġdeli":2895,"Ġwirkungen":2896,"ĠwÃ¼n":2897,"eu":2898,"Ġwelcome":2899,"Ġ22":2900,"Ġentscheiden":2901,"Ġportug":2902,"Ġgruppe":2903,"Ġhlt":2904,"Ġcen":2905,"Ġmanu":2906,"Ġ2005":2907,"Ġanti":2908,"Ġury":2909,"Ġsea":2910,"Ġdige":2911,"Ġkonferenz":2912,"Ġentscheidung":2913,"Ġbul":2914,"Ġremain":2915,"Ġfriend":2916,"ĠjÃ¤hr":2917,"Ġinnovation":2918,"Ġ2004":2919,"Ġrisk":2920,"Ġprice":2921,"Ġsat":2922,"Ġitalien":2923,"Ġify":2924,"Ġschre":2925,"Ġapplication":2926,"ĠunterstÃ¼tzt":2927,"Ġsweise":2928,"Ġitself":2929,"ĠbemÃ¼":2930,"Ġmetho":2931,"Ġchallen":2932,"Ġtown":2933,"Ġdeleg":2934,"Ġperfe":2935,"Ġither":2936,"ĠÃŁt":2937,"Ġaktion":2938,"Ġvorgesch":2939,"Ġcosts":2940,"Ġived":2941,"Ġators":2942,"Ġmid":2943,"Ġparties":2944,"Ġscho":2945,"Ġrift":2946,"Ġindem":2947,"ĠvorschlÃ¤ge":2948,"Ġcontext":2949,"Ġdue":2950,"Ġkurz":2951,"Ġbeziehungen":2952,"Ġrate":2953,"Ġheim":2954,"st":2955,"Ġerm":2956,"ĠerhÃ¶":2957,"Ġingen":2958,"Ġvert":2959,"Ġweniger":2960,"Ġprogrammes":2961,"Ġcommunication":2962,"Ġeded":2963,"Ġyl":2964,"ĠhÃ¤t":2965,"Ġaustr":2966,"Ġmitteln":2967,"Ġieben":2968,"Ġgeschlossen":2969,"Ġitz":2970,"Ġgemeinsame":2971,"ĠbevÃ¶l":2972,"Ġfreed":2973,"Ġcapital":2974,"Ġinge":2975,"Ġrun":2976,"Ġverordnung":2977,"Ġ....":2978,"Ġnever":2979,"Ġerneu":2980,"Ġenjoy":2981,"Ġattra":2982,"Ġverhandlungen":2983,"Ġregionen":2984,"Ġlink":2985,"Ġjap":2986,"Ġmillionen":2987,"Ġconstru":2988,"Ġstrengthen":2989,"Ġiding":2990,"Ġzunehmen":2991,"Ġdanken":2992,"Ġham":2993,"Ġented":2994,"Ġtic":2995,"Ġums":2996,"Ġpool":2997,"Ġcast":2998,"Ġclar":2999,"Ġtechnical":3000,"Ġsolidar":3001,"Ġdank":3002,"ĠstÃ¤ndig":3003,"Ġfern":3004,"Ġconsult":3005,"Ġeuropas":3006,"Ġinclude":3007,"Ġspolitik":3008,"Ġcontinu":3009,"Ġativ":3010,"Ġdenken":3011,"Ġagenda":3012,"ĠprÃ¤sidentin":3013,"Ġmoney":3014,"Ġzip":3015,"Ġzun":3016,"Ġdest":3017,"Ġwin":3018,"Ġlemen":3019,"ĠÃ¼tz":3020,"ĠfÃ¤hr":3021,"Ġcrimin":3022,"Ġfreedom":3023,"ĠmÃ¶chten":3024,"Ġino":3025,"Ġdim":3026,"Ġchem":3027,"Ġcustomers":3028,"Ġhaving":3029,"Ġprojekt":3030,"Ġresults":3031,"Ġistan":3032,"Ġzif":3033,"Ġktr":3034,"Ġwissenschaft":3035,"Ġamendments":3036,"Ġckel":3037,"Ġmann":3038,"Ġitionen":3039,"Ġkat":3040,"Ġsco":3041,"Ġforschung":3042,"Ġstep":3043,"Ġnegotiations":3044,"an":3045,"Ġrats":3046,"Ġuntil":3047,"Ġschnell":3048,"Ġbetra":3049,"Ġarticle":3050,"Ġgol":3051,"Ġmoment":3052,"Ġopportunity":3053,"Ġguide":3054,"Ġdaran":3055,"Ġml":3056,"ĠerfÃ¼":3057,"Ġapp":3058,"Ġproto":3059,"Ġoften":3060,"Ġphoto":3061,"Ġsep":3062,"Ġgute":3063,"Ġlive":3064,"Ġbare":3065,"Ġrow":3066,"Ġfte":3067,"ĠÃ¤nderungen":3068,"Ġzehn":3069,"Ġfordert":3070,"Ġdeutschland":3071,"Ġactions":3072,"Ġkonn":3073,"Ġgroups":3074,"Ġmean":3075,"Ġspr":3076,"Ġsafe":3077,"Ġbesser":3078,"Ġath":3079,"Ġberichterstatter":3080,"Ġ2003":3081,"Ġstimmen":3082,"Ġaufge":3083,"Ġival":3084,"Ġfunction":3085,"Ġgemeinschafts":3086,"Ġflug":3087,"Ġconclus":3088,"Ġatten":3089,"Ġtin":3090,"Ġwindow":3091,"Ġkomple":3092,"Ġods":3093,"Ġrup":3094,"Ġcontent":3095,"Ġdarin":3096,"Ġdistrib":3097,"Ġfundamental":3098,"Ġshare":3099,"Ġvalue":3100,"Ġrelation":3101,"Ġresponsibility":3102,"Ġpas":3103,"Ġgleichzeit":3104,"Ġzustellen":3105,"Ġauswirkungen":3106,"Ġvertrags":3107,"Ġprovides":3108,"Ġatory":3109,"ĠunabhÃ¤ng":3110,"Ġfamily":3111,"Ġanwendung":3112,"Ġgilt":3113,"Ġeinander":3114,"Ġnieder":3115,"ĠmÃ¶glichen":3116,"Ġping":3117,"Ġreally":3118,"Ġeffect":3119,"re":3120,"Ġladies":3121,"Ġluft":3122,"Ġehr":3123,"Ġviol":3124,"Ġincreasing":3125,"Ġclass":3126,"Ġjud":3127,"Ġbeginn":3128,"Ġthus":3129,"ĠfÃ¼n":3130,"Ġsomething":3131,"Ġently":3132,"Ġabsol":3133,"ĠpersÃ¶n":3134,"Ġhunder":3135,"Ġtober":3136,"Ġmention":3137,"ĠbekÃ¤mpfung":3138,"Ġinten":3139,"Ġbuilding":3140,"Ġpel":3141,"Ġgrat":3142,"Ġneben":3143,"Ġconference":3144,"Ġpoints":3145,"Ġoft":3146,"Ġeit":3147,"Ġcurrently":3148,"ĠgemÃ¤ÃŁ":3149,"Ġgentlemen":3150,"Ġlig":3151,"Ġside":3152,"Ġbaren":3153,"Ġuntersuch":3154,"Ġght":3155,"Ġrather":3156,"Ġsicherheits":3157,"Ġhaltung":3158,"Ġtember":3159,"ĠgÃ¤ste":3160,"Ġanderer":3161,"Ġcient":3162,"Ġabove":3163,"Ġmoder":3164,"ĠÃ¤tze":3165,"Ġfish":3166,"Ġkung":3167,"Ġisse":3168,"ĠÃ¤chlich":3169,"Ġ21":3170,"ĠlÃ¤ss":3171,"Ġbefindet":3172,"Ġmessen":3173,"Ġentsch":3174,"Ġmeinung":3175,"Ġresponsible":3176,"Ġprinciple":3177,"Ġined":3178,"Ġarian":3179,"Ġhu":3180,"Ġerweit":3181,"Ġcir":3182,"Ġstelle":3183,"Ġgesundheit":3184,"Ġassess":3185,"ĠÃ¼berein":3186,"Ġbook":3187,"Ġerfahr":3188,"Ġcat":3189,"Ġwider":3190,"Ġhalte":3191,"Ġwiesen":3192,"Ġtages":3193,"Ġzogen":3194,"Ġkeep":3195,"Ġmonths":3196,"Ġrapporteur":3197,"Ġmi":3198,"Ġprakt":3199,"Ġebenfalls":3200,"Ġgelten":3201,"Ġdist":3202,"Ġboard":3203,"Ġ2002":3204,"Ġmonitor":3205,"Ġjapan":3206,"Ġieg":3207,"Ġvorgeschlagen":3208,"Ġzi":3209,"Ġgraph":3210,"Ġwichtige":3211,"Ġyoung":3212,"Ġdeutlich":3213,"Ġschritt":3214,"Ġgreater":3215,"Ġalthough":3216,"Ġiere":3217,"Ġentwickel":3218,"Ġmp":3219,"Ġgreen":3220,"Ġsustainable":3221,"Ġagree":3222,"Ġ70":3223,"Ġcrip":3224,"Ġfinally":3225,"Ġmeisten":3226,"Ġauszu":3227,"Ġcarr":3228,"Ġrein":3229,"Ġsolution":3230,"Ġrequirements":3231,"Ġkontrolle":3232,"Ġgruppen":3233,"Ġgemacht":3234,"mail":3235,"Ġracy":3236,"Ġstation":3237,"ĠÃ¼ssel":3238,"Ġmem":3239,"Ġlitt":3240,"Ġnote":3241,"Ġgerade":3242,"Ġmedia":3243,"Ġentfernt":3244,"Ġbetrifft":3245,"ĠlÃ¶":3246,"Ġsysteme":3247,"ĠlÃ¤u":3248,"Ġencour":3249,"Ġliberal":3250,"ĠentschlieÃŁ":3251,"Ġberlin":3252,"Ġdeveloping":3253,"Ġunch":3254,"Ġgarant":3255,"Ġians":3256,"Ġapply":3257,"Ġround":3258,"Ġappropriate":3259,"Ġessential":3260,"Ġkal":3261,"Ġgesagt":3262,"Ġfischere":3263,"Ġseptember":3264,"Ġever":3265,"Ġuellen":3266,"Ġses":3267,"Ġafr":3268,"Ġbew":3269,"Ġschaffung":3270,"Ġabgeord":3271,"Ġclimate":3272,"Ġbody":3273,"Ġiled":3274,"Ġgleichzeitig":3275,"Ġklima":3276,"Ġspie":3277,"Ġacqu":3278,"Ġtimes":3279,"Ġbeitrit":3280,"Ġmag":3281,"Ġvergangen":3282,"Ġcheck":3283,"Ġsolche":3284,"Ġussel":3285,"Ġrelations":3286,"Ġnungs":3287,"Ġcases":3288,"Ġstaff":3289,"Ġada":3290,"Ġchanges":3291,"Ġmight":3292,"Ġcomputer":3293,"Ġarn":3294,"Ġlen":3295,"Ġthings":3296,"Ġobjective":3297,"Ġandid":3298,"Ġoption":3299,"Ġunivers":3300,"Ġmadam":3301,"Ġimpact":3302,"Ġoffice":3303,"Ġbelg":3304,"Ġsubmit":3305,"Ġbor":3306,"Ġbeitrag":3307,"Ġionen":3308,"Ġreihe":3309,"Ġfordern":3310,"Ġschrift":3311,"Ġtransfer":3312,"Ġborder":3313,"Ġempfehl":3314,"Ġnove":3315,"Ġination":3316,"Ġistic":3317,"Ġminim":3318,"Ġkennt":3319,"Ġseem":3320,"Ġverbesserung":3321,"Ġcting":3322,"Ġindic":3323,"Ġangenommen":3324,"Ġported":3325,"Ġago":3326,"ĠfÃ¼nf":3327,"Ġrop":3328,"Ġconcerning":3329,"Ġquestions":3330,"Ġsec":3331,"Ġ2001":3332,"Ġinteress":3333,"Ġlar":3334,"Ġexisting":3335,"ĠverstÃ¤r":3336,"Ġparty":3337,"Ġexcell":3338,"Ġpresented":3339,"Ġcop":3340,"Ġpotential":3341,"Ġsozialen":3342,"Ġ99":3343,"Ġbeschl":3344,"Ġsogar":3345,"Ġlittle":3346,"Ġpassen":3347,"Ġrequired":3348,"Ġeinigen":3349,"Ġmodel":3350,"Ġllt":3351,"Ġmanufact":3352,"Ġcomfort":3353,"Ġober":3354,"Ġfeel":3355,"Ġreturn":3356,"Ġfinal":3357,"Ġuhr":3358,"Ġjeden":3359,"ĠÃ¤mlich":3360,"Ġgebra":3361,"Ġaging":3362,"Ġjanu":3363,"Ġcli":3364,"Ġregar":3365,"Ġarbeitet":3366,"Ġlocation":3367,"Ġhem":3368,"Ġfreund":3369,"Ġross":3370,"ĠprÃ¼fung":3371,"Ġnatural":3372,"Ġfang":3373,"Ġbleiben":3374,"Ġose":3375,"Ġrepub":3376,"ĠnÃ¤mlich":3377,"Ġrund":3378,"Ġothers":3379,"Ġbehalf":3380,"Ġafric":3381,"Ġprochen":3382,"Ġtrotz":3383,"Ġdemon":3384,"Ġfight":3385,"Ġdre":3386,"Ġsei":3387,"Ġmic":3388,"Ġexcellent":3389,"Ġoffe":3390,"Ġaway":3391,"Ġumente":3392,"Ġkei":3393,"ĠwÃ¼rden":3394,"ĠnÃ¤chsten":3395,"Ġana":3396,"Ġbzw":3397,"ĠschlieÃŁen":3398,"Ġobjectives":3399,"Ġattention":3400,"Ġinternationale":3401,"Ġweek":3402,"Ġledge":3403,"Ġsouth":3404,"Ġhinblick":3405,"Ġ23":3406,"Ġnete":3407,"Ġ[[":3408,"Ġcultural":3409,"Ġanaly":3410,"Ġew":3411,"ĠhÃ¶ch":3412,"Ġiers":3413,"Ġmber":3414,"Ġagreements":3415,"Ġcalled":3416,"Ġinteresse":3417,"Ġassistance":3418,"Ġcoordin":3419,"Ġiar":3420,"Ġprevent":3421,"Ġutet":3422,"Ġausschusses":3423,"Ġerheb":3424,"ĠbeschÃ¤ftigung":3425,"Ġlay":3426,"Ġpast":3427,"mit":3428,"Ġctors":3429,"Ġtreffen":3430,"Ġkoordin":3431,"Ġextreme":3432,"Ġvic":3433,"Ġband":3434,"Ġigungs":3435,"10":3436,"Ġmuse":3437,"Ġkommunik":3438,"Ġteilt":3439,"ĠkÃ¼r":3440,"Ġceed":3441,"Ġalong":3442,"Ġintens":3443,"Ġclearly":3444,"Ġexchange":3445,"Ġkerung":3446,"Ġliches":3447,"Ġlass":3448,"Ġcontact":3449,"Ġansicht":3450,"Ġpie":3451,"Ġbad":3452,"Ġfrance":3453,"Ġisrael":3454,"Ġrecommend":3455,"Ġtige":3456,"Ġcross":3457,"ĠweiÃŁ":3458,"]]":3459,"Ġadditional":3460,"Ġminutes":3461,"Ġkonta":3462,"Ġcenter":3463,"Ġarbeitspl":3464,"Ġconf":3465,"Ġklein":3466,"ĠfrÃ¼h":3467,"ĠdÃ¼rfen":3468,"Ġwerde":3469,"Ġconvention":3470,"ĠflÃ¼":3471,"Ġtable":3472,"Ġdemocratic":3473,"Ġchr":3474,"Ġzentral":3475,"Ġquite":3476,"Ġison":3477,"Ġichts":3478,"Ġsites":3479,"Ġiveness":3480,"Ġzy":3481,"ĠdrÃ¼ck":3482,"Ġzeigen":3483,"Ġenterpr":3484,"Ġbat":3485,"Ġlling":3486,"Ġbio":3487,"Ġsetzt":3488,"Ġspeak":3489,"Ġlandes":3490,"Ġgree":3491,"Ġrepublik":3492,"Ġlandwirtschaft":3493,"Ġideal":3494,"ĠkÃ¶nnten":3495,"Ġliz":3496,"Ġprices":3497,"Ġausch":3498,"Ġhinder":3499,"Ġpartners":3500,"Ġindeed":3501,"Ġshof":3502,"Ġichen":3503,"ĠÃ¼sse":3504,"Ġhig":3505,"Ġ27":3506,"Ġdraw":3507,"Ġhandeln":3508,"Ġdemonstr":3509,"Ġgern":3510,"Ġbrauchen":3511,"Ġbekannt":3512,"Ġforman":3513,"Ġetc":3514,"Ġcode":3515,"Ġmakes":3516,"Ġcies":3517,"Ġhilfen":3518,"Ġweiteren":3519,"Ġwan":3520,"Ġraph":3521,"Ġdecisions":3522,"se":3523,"Ġnovember":3524,"Ġneeded":3525,"Ġwettbewerb":3526,"Ġeinzelnen":3527,"Ġbestimmungen":3528,"Ġmaxim":3529,"Ġgram":3530,"Ġkn":3531,"Ġentire":3532,"Ġwerte":3533,"Ġwesent":3534,"en":3535,"Ġlied":3536,"Ġconcerns":3537,"Ġfocus":3538,"Ġtry":3539,"Ġcru":3540,"Ġamendment":3541,"Ġinvestitionen":3542,"Ġisiert":3543,"Ġebenso":3544,"Ġerforderlich":3545,"un":3546,"ĠstÃ¼ck":3547,"Ġhnen":3548,"Ġleft":3549,"Ġstatus":3550,"Ġhaup":3551,"Ġppen":3552,"Ġsolutions":3553,"Ġbinnenmarkt":3554,"Ġnormal":3555,"ĠbevÃ¶lkerung":3556,"Ġextra":3557,"Ġigration":3558,"Ġ198":3559,"Ġlot":3560,"Ġcise":3561,"Ġstop":3562,"Ġkonkre":3563,"Ġmitglieder":3564,"Ġauftrag":3565,"Ġverbunden":3566,"Ġbeispielsweise":3567,"Ġunions":3568,"Ġdemokratie":3569,"Ġladen":3570,"Ġbisher":3571,"Ġsound":3572,"Ġunserem":3573,"Ġengl":3574,"Ġrecogn":3575,"Ġquis":3576,"Ġdemocracy":3577,"Ġukra":3578,"ĠÃ¼berwach":3579,"ĠerwÃ¤":3580,"Ġpunkte":3581,"Ġconsequ":3582,"ĠzÃ¤":3583,"Ġrepublic":3584,"Ġfortschritte":3585,"Ġgliche":3586,"ĠzÃ¼glich":3587,"Ġstor":3588,"Ġmenschenrechte":3589,"Ġowed":3590,"Ġverantwortung":3591,"Ġapr":3592,"Ġias":3593,"Ġgos":3594,"Ġvideo":3595,"Ġjour":3596,"Ġinformations":3597,"Ġnichts":3598,"Ġgerichtshof":3599,"Ġtex":3600,"Ġworkers":3601,"the":3602,"Ġhon":3603,"Ġdung":3604,"Ġlei":3605,"Ġtit":3606,"Ġcontain":3607,"Ġrelev":3608,"Ġbevor":3609,"ĠÃ¤ndern":3610,"Ġwords":3611,"Ġheld":3612,"Ġserver":3613,"Ġvorsitz":3614,"Ġgrie":3615,"Ġfeld":3616,"Ġphas":3617,"Ġspir":3618,"Ġamb":3619,"term":3620,"Ġhindern":3621,"Ġfirm":3622,"Ġinterests":3623,"Ġleistungs":3624,"Ġabstimmung":3625,"Ġinvolved":3626,"Ġfisher":3627,"Ġdialogue":3628,"Ġsug":3629,"Ġextern":3630,"Ġeasy":3631,"Ġfolgt":3632,"ĠfÃ¶rdern":3633,"Ġlinks":3634,"Ġkeinen":3635,"Ġspace":3636,"Ġnature":3637,"Ġprim":3638,"Ġnel":3639,"Ġvielleicht":3640,"Ġpubl":3641,"Ġielle":3642,"Ġsimply":3643,"Ġzone":3644,"Ġarbeitung":3645,"Ġbroad":3646,"Ġacross":3647,"Ġterrit":3648,"Ġerfolgre":3649,"Ġsus":3650,"Ġprojekte":3651,"Ġseinem":3652,"Ġception":3653,"Ġworten":3654,"Ġagreed":3655,"Ġorts":3656,"Ġziehen":3657,"Ġrequest":3658,"Ġeus":3659,"Ġquick":3660,"Ġchter":3661,"Ġerfolg":3662,"Ġain":3663,"Ġofficial":3664,"Ġstability":3665,"Ġregeln":3666,"Ġihm":3667,"Ġhan":3668,"ĠschÃ¶":3669,"Ġoblig":3670,"Ġunver":3671,"Ġested":3672,"Ġging":3673,"Ġret":3674,"Ġckt":3675,"Ġlange":3676,"Ġiet":3677,"Ġnews":3678,"Ġglaube":3679,"Ġschool":3680,"Ġindustrial":3681,"Ġeth":3682,"Ġconsumer":3683,"Ġfreiheit":3684,"Ġanalys":3685,"Ġench":3686,"Ġreise":3687,"Ġbedeutet":3688,"Ġcapac":3689,"Ġarchite":3690,"Ġkontroll":3691,"Ġeinsatz":3692,"Ġconsumers":3693,"ĠÃ¼berzeu":3694,"Ġangebo":3695,"Ġdienstleistungen":3696,"Ġzeichnet":3697,"Ġprivat":3698,"Ġpreise":3699,"Ġcard":3700,"Ġsil":3701,"Ġmaintain":3702,"Ġnimmt":3703,"Ġuelle":3704,"Ġcommer":3705,"Ġneg":3706,"Ġvolle":3707,"Ġprinzip":3708,"Ġerreicht":3709,"Ġarg":3710,"Ġbereiche":3711,"Ġbru":3712,"Ġzentrum":3713,"Ġgreifen":3714,"ĠgewÃ¤":3715,"Ġprevious":3716,"Ġpeten":3717,"Ġgesamten":3718,"Ġfeder":3719,"Ġcharac":3720,"Ġfranz":3721,"Ġergebnis":3722,"Ġzahlen":3723,"Ġupon":3724,"Ġcame":3725,"Ġagricultural":3726,"Ġstock":3727,"Ġjobs":3728,"ĠverÃ¶ffentlich":3729,"Ġdad":3730,"Ġdeveloped":3731,"ĠantrÃ¤ge":3732,"Ġenthalten":3733,"Ġprep":3734,"Ġlonger":3735,"Ġreiche":3736,"Ġobwohl":3737,"Ġ).":3738,"Ġgestimmt":3739,"Ġtv":3740,"ĠÃ¤lt":3741,"Ġthemselves":3742,"Ġwindows":3743,"Ġistration":3744,"Ġrelig":3745,"Ġangesichts":3746,"ĠÃ¤chst":3747,"Ġverkauf":3748,"Ġmob":3749,"Ġevents":3750,"Ġihres":3751,"ĠzunÃ¤chst":3752,"Ġdut":3753,"Ġgenehm":3754,"Ġckelt":3755,"Ġlater":3756,"Ġgovernments":3757,"Ġjeweil":3758,"Ġelektr":3759,"Ġouts":3760,"Ġpartnership":3761,"Ġflexib":3762,"Ġbesten":3763,"Ġ1999":3764,"Ġites":3765,"Ġquo":3766,"Ġedi":3767,"Ġholid":3768,"Ġrela":3769,"Ġvoted":3770,"Ġrad":3771,"Ġhandlung":3772,"Ġbald":3773,"Ġaltern":3774,"Ġweder":3775,"Ġalu":3776,"Ġbenefit":3777,"Ġexternal":3778,"Ġvereinigten":3779,"Ġenlarge":3780,"Ġwenig":3781,"Ġihn":3782,"Ġhab":3783,"Ġball":3784,"Ġdocument":3785,"Ġiran":3786,"Ġash":3787,"Ġleistet":3788,"Ġmoun":3789,"Ġmosp":3790,"ĠprÃ¼fen":3791,"Ġrichtungen":3792,"Ġimes":3793,"Ġquar":3794,"Ġhnt":3795,"ĠbenÃ¶":3796,"Ġwirksam":3797,"Ġanswer":3798,"Ġsoon":3799,"Ġseits":3800,"Ġdokument":3801,"Ġinteressen":3802,"Ġiellen":3803,"Ġfraktion":3804,"Ġstein":3805,"Ġfallen":3806,"Ġmusic":3807,"ĠstÃ¤ndigen":3808,"Ġperforman":3809,"Ġumfang":3810,"Ġsubsi":3811,"Ġsecre":3812,"Ġfilm":3813,"Ġkrimin":3814,"ĠverfÃ¼g":3815,"Ġcombin":3816,"Ġatur":3817,"Ġkop":3818,"Ġigte":3819,"Ġcut":3820,"Ġabon":3821,"Ġknown":3822,"ĠsÃ¼d":3823,"Ġhumanit":3824,"Ġapril":3825,"Ġichtet":3826,"Ġgam":3827,"Ġhib":3828,"Ġergebnisse":3829,"Ġgebracht":3830,"Ġdownload":3831,"Ġnotwendig":3832,"Ġbestand":3833,"Ġforderung":3834,"Ġgesundheits":3835,"Ġrea":3836,"ĠÃ¼nst":3837,"Ġlabour":3838,"Ġchin":3839,"Ġwat":3840,"er":3841,"Ġorganisationen":3842,"Ġbetroffen":3843,"Ġgrenzen":3844,"Ġyes":3845,"Ġatmosp":3846,"ĠermÃ¶glich":3847,"Ġcla":3848,"Ġwech":3849,"Ġhend":3850,"Ġvertreter":3851,"Ġdebatte":3852,"Ġangelegenheiten":3853,"Ġschn":3854,"Ġheart":3855,"Ġspielen":3856,"Ġistrat":3857,"Ġdetermin":3858,"Ġmicro":3859,"Ġanten":3860,"Ġmobile":3861,"Ġangemessen":3862,"Ġempf":3863,"Ġlic":3864,"Ġgratul":3865,"Ġroman":3866,"Ġengage":3867,"Ġarr":3868,"Ġhinzu":3869,"Ġestablished":3870,"Ġregister":3871,"Ġleistung":3872,"Ġverbessern":3873,"Ġdarum":3874,"Ġgers":3875,"Ġeinheit":3876,"Ġwto":3877,"Ġdirectly":3878,"Ġaking":3879,"Ġbetreffen":3880,"Ġagriculture":3881,"Ġfive":3882,"Ġpruch":3883,"Ġrefle":3884,"Ġux":3885,"Ġdring":3886,"Ġsorgen":3887,"ĠgehÃ¶rt":3888,"Ġgab":3889,"Ġbeaut":3890,"Ġveranst":3891,"Ġmals":3892,"Ġkolleg":3893,"Ġzielt":3894,"Ġmis":3895,"Ġaccom":3896,"Ġswe":3897,"Ġthough":3898,"Ġpackage":3899,"ĠfÃ¤llen":3900,"Ġsepar":3901,"Ġzielen":3902,"Ġnutzung":3903,"Ġknowledge":3904,"Ġhinsichtlich":3905,"Ġov":3906,"Ġinsgesamt":3907,"Ġdor":3908,"Ġscient":3909,"Ġregarding":3910,"Ġfrankreich":3911,"Ġ28":3912,"Ġbesuch":3913,"Ġemphas":3914,"Ġgal":3915,"ĠgefÃ¤hr":3916,"Ġexten":3917,"ĠgegenwÃ¤r":3918,"Ġbulgar":3919,"Ġpromote":3920,"Ġpriority":3921,"Ġrelevant":3922,"Ġavo":3923,"Ġkoh":3924,"Ġadministrat":3925,"Ġables":3926,"Ġguest":3927,"Ġthemen":3928,"Ġcorre":3929,"Ġdiskuss":3930,"Ġcreation":3931,"Ġmodif":3932,"Ġletzt":3933,"Ġseen":3934,"Ġpendent":3935,"Ġdraft":3936,"Ġdienste":3937,"Ġfacilities":3938,"Ġculture":3939,"Ġopt":3940,"Ġwirtschaftliche":3941,"Ġjedes":3942,"Ġcommitment":3943,"Ġstructural":3944,"Ġtook":3945,"Ġhoste":3946,"Ġinstitutionen":3947,"Ġiffen":3948,"Ġency":3949,"Ġrum":3950,"Ġaufmerk":3951,"Ġgebung":3952,"Ġzweif":3953,"Ġprofessional":3954,"Ġdecided":3955,"Ġsieht":3956,"ĠkrÃ¤f":3957,"Ġlimited":3958,"Ġdynam":3959,"Ġbeautif":3960,"Ġrussia":3961,"Ġbund":3962,"Ġnehm":3963,"Ġtakes":3964,"Ġ90":3965,"Ġreib":3966,"Ġfoto":3967,"Ġvolks":3968,"Ġ35":3969,"Ġprem":3970,"Ġferner":3971,"Ġstage":3972,"Ġgelt":3973,"Ġateral":3974,"ĠgrundsÃ¤tz":3975,"ĠÃ¤nderung":3976,"Ġtype":3977,"ĠÃ¤ter":3978,"Ġaufmerksam":3979,"Ġgewalt":3980,"Ġabzu":3981,"Ġstatist":3982,"Ġnord":3983,"Ġvertreten":3984,"Ġmajority":3985,"Ġdete":3986,"Ġaust":3987,"Ġthroughout":3988,"Ġtor":3989,"Ġmensch":3990,"Ġproduktion":3991,"Ġski":3992,"Ġphone":3993,"Ġprinci":3994,"Ġzudem":3995,"Ġinstruments":3996,"Ġearly":3997,"Ġcharge":3998,"Ġbedarf":3999,"Ġamount":4000,"Ġhold":4001,"Ġama":4002,"Ġentwickelt":4003,"Ġlanguage":4004,"Ġgleichen":4005,"Ġimmedi":4006,"ĠÃ¤nde":4007,"ĠschlÃ¤":4008,"Ġvorgesehen":4009,"Ġfunding":4010,"Ġgeschichte":4011,"Ġilar":4012,"Ġguarantee":4013,"Ġacy":4014,"Ġgoods":4015,"Ġprofit":4016,"Ġstud":4017,"Ġchance":4018,"Ġzeug":4019,"Ġlevels":4020,"ĠermÃ¶glicht":4021,"Ġfrench":4022,"Ġhelfen":4023,"Ġhoffe":4024,"ĠbeschrÃ¤n":4025,"Ġstoff":4026,"Ġbanken":4027,"Ġmasch":4028,"Ġires":4029,"Ġverwendet":4030,"Ġku":4031,"Ġsupply":4032,"ĠstÃ¤d":4033,"Ġnight":4034,"Ġbreakfast":4035,"Ġoriginal":4036,"Ġalmost":4037,"Ġnorth":4038,"Ġhistory":4039,"Ġhohen":4040,"Ġprinciples":4041,"Ġspezif":4042,"Ġpopulation":4043,"Ġincreased":4044,"ĠrÃ¤um":4045,"Ġmbh":4046,"Ġjede":4047,"Ġsix":4048,"Ġusers":4049,"ĠprÃ¤sidenten":4050,"Ġuniver":4051,"Ġprovisions":4052,"-,":4053,"Ġconfl":4054,"Ġsive":4055,"Ġbooking":4056,"ĠflÃ¤":4057,"Ġrail":4058,"Ġperfect":4059,"Ġkampf":4060,"Ġaufbau":4061,"Ġneues":4062,"Ġorient":4063,"Ġellen":4064,"ĠÃ¤ren":4065,"Ġenable":4066,"Ġstead":4067,"Ġconclu":4068,"Ġtru":4069,"Ġiber":4070,"Ġliving":4071,"Ġrang":4072,"Ġfit":4073,"Ġicken":4074,"Ġdadurch":4075,"Ġperformance":4076,"Ġfile":4077,"ĠkÃ¶nig":4078,"Ġpractice":4079,"Ġwichtigen":4080,"Ġling":4081,"Ġphil":4082,"Ġcapacity":4083,"Ġaug":4084,"ĠuÃŁ":4085,"Ġprepar":4086,"Ġplann":4087,"Ġplant":4088,"Ġsent":4089,"Ġlooking":4090,"Ġausdruck":4091,"Ġliste":4092,"Ġeither":4093,"ĠtatsÃ¤chlich":4094,"Ġguests":4095,"Ġwichtigsten":4096,"Ġverschiedene":4097,"Ġemissions":4098,"Ġprocedures":4099,"Ġcreated":4100,"Ġlas":4101,"Ġfail":4102,"Ġparis":4103,"Ġiko":4104,"Ġplans":4105,"Ġjuni":4106,"Ġsourcen":4107,"Ġverring":4108,"Ġllig":4109,"Ġscheint":4110,"ĠprÃ¤sent":4111,"Ġenough":4112,"ĠerklÃ¤rung":4113,"Ġilities":4114,"Ġbeihilfen":4115,"Ġkommissions":4116,"Ġopportunities":4117,"Ġevalu":4118,"Ġfolger":4119,"Ġherren":4120,"ĠbestÃ¤t":4121,"Ġeib":4122,"Ġmusik":4123,"Ġffer":4124,"Ġmitteilung":4125,"Ġwander":4126,"Ġcharacter":4127,"Ġreports":4128,"Ġfamilien":4129,"Ġbung":4130,"Ġconstruction":4131,"Ġhigher":4132,"Ġverte":4133,"Ġmio":4134,"Ġterm":4135,"Ġparts":4136,"ĠtÃ¼rkei":4137,"Ġbasic":4138,"Ġmotor":4139,"Ġmitarbeit":4140,"Ġhost":4141,"Ġalternative":4142,"Ġitem":4143,"Ġbind":4144,"Ġkonf":4145,"Ġaussprache":4146,"Ġregelung":4147,"ĠgrÃ¶ÃŁer":4148,"Ġbef":4149,"Ġchrist":4150,"Ġjahrhunder":4151,"Ġleading":4152,"Ġption":4153,"Ġneuer":4154,"Ġlaub":4155,"Ġworks":4156,"Ġaufgabe":4157,"ĠfÃ¤lle":4158,"Ġfahrt":4159,"Ġminuten":4160,"Ġpap":4161,"Ġeffizien":4162,"Ġexpect":4163,"Ġbedeuten":4164,"Ġwall":4165,"Ġexport":4166,"Ġshar":4167,"Ġgmbh":4168,"Ġbox":4169,"Ġlegung":4170,"Ġkunst":4171,"Ġasyl":4172,"Ġdesigned":4173,"Ġfreu":4174,"Ġhappen":4175,"Ġinvestig":4176,"Ġstanden":4177,"Ġamerikan":4178,"Ġsoziale":4179,"Ġkapital":4180,"Ġverwendung":4181,"ĠgrÃ¼nden":4182,"Ġparliaments":4183,"ĠeinfÃ¼hrung":4184,"Ġacce":4185,"Ġsex":4186,"Ġdez":4187,"Ġverletz":4188,"Ġmm":4189,"Ġpaper":4190,"Ġbeautiful":4191,"Ġreceive":4192,"Ġiterr":4193,"Ġtravel":4194,"Ġlaunch":4195,"ĠÃ¤ndert":4196,"Ġtu":4197,"Ġktiv":4198,"Ġachen":4199,"Ġperspe":4200,"Ġurspr":4201,"Ġzivil":4202,"Ġtary":4203,"Ġith":4204,"Ġreduce":4205,"Ġfal":4206,"Ġannual":4207,"Ġakzept":4208,"ĠgewÃ¤hrleisten":4209,"Ġefficient":4210,"Ġwachsen":4211,"Ġsimilar":4212,"Ġkategor":4213,"Ġystem":4214,"Ġbeein":4215,"Ġverwaltung":4216,"Ġexclus":4217,"Ġportugal":4218,"Ġjenigen":4219,"Ġ29":4220,"Ġairport":4221,"Ġoperations":4222,"ĠÃ¼br":4223,"Ġerweiterung":4224,"Ġclaim":4225,"Ġmented":4226,"Ġrule":4227,"Ġkonzentr":4228,"Ġliss":4229,"Ġgran":4230,"Ġclean":4231,"Ġrelax":4232,"Ġtrue":4233,"Ġallgemeinen":4234,"Ġfortun":4235,"Ġrichten":4236,"Ġdop":4237,"Ġkleinen":4238,"Ġincluded":4239,"Ġsuggest":4240,"Ġorganisations":4241,"Ġrau":4242,"Ġinsel":4243,"Ġparteien":4244,"Ġsend":4245,"Ġlisbon":4246,"Ġaltungs":4247,"Ġell":4248,"Ġoutside":4249,"ĠlÃ¶sungen":4250,"Ġational":4251,"Ġya":4252,"Ġachten":4253,"Ġextremely":4254,"Ġfischerei":4255,"Ġica":4256,"Ġlan":4257,"Ġdefen":4258,"Ġukraine":4259,"Ġschem":4260,"Ġgeber":4261,"Ġisieren":4262,"Ġought":4263,"Ġpfen":4264,"ĠstÃ¤ndige":4265,"Ġdetails":4266,"ĠermÃ¶glichen":4267,"Ġfinanzierung":4268,"Ġsituated":4269,"ĠÃ¶ffentliche":4270,"Ġgerichtet":4271,"Ġmehrere":4272,"Ġrelated":4273,"ĠmÃ¤n":4274,"Ġconstitution":4275,"Ġkontakt":4276,"ĠschÃ¶n":4277,"Ġrechtsvorschriften":4278,"Ġerfolgreich":4279,"Ġverabsch":4280,"Ġbran":4281,"ĠrÃ¤":4282,"ĠenthÃ¤lt":4283,"Ġcontribution":4284,"Ġkred":4285,"Ġreiben":4286,"Ġsinn":4287,"Ġbalance":4288,"Ġveh":4289,"Ġpict":4290,"Ġmitgliedstaat":4291,"Ġcham":4292,"ĠhÃ¶he":4293,"ĠnÃ¤he":4294,"Ġachieved":4295,"Ġtreatment":4296,"Ġ26":4297,"ĠgÃ¼lt":4298,"Ġsterreich":4299,"ĠvÃ¶":4300,"Ġregular":4301,"Ġdritt":4302,"Ġonen":4303,"Ġsag":4304,"Ġvorbereit":4305,"Ġlissabon":4306,"Ġsatis":4307,"Ġanforderungen":4308,"Ġministers":4309,"ĠhÃ¤u":4310,"Ġdimension":4311,"ĠbemÃ¼hungen":4312,"Ġkern":4313,"Ġregierungen":4314,"ĠhÃ¤tte":4315,"Ġresponse":4316,"Ġschle":4317,"Ġarten":4318,"Ġpages":4319,"Ġmedium":4320,"Ġcker":4321,"ĠrÃ¼":4322,"Ġthanks":4323,"Ġwobei":4324,"Ġengine":4325,"Ġhatten":4326,"ĠkÃ¶r":4327,"Ġcement":4328,"Ġano":4329,"Ġbrand":4330,"Ġeverything":4331,"Ġcoll":4332,"ĠeinschlieÃŁlich":4333,"Ġverteid":4334,"Ġextens":4335,"Ġentwur":4336,"Ġsearch":4337,"Ġprogramms":4338,"Ġdauer":4339,"Ġkir":4340,"Ġcredit":4341,"Ġlangfrist":4342,"Ġwestern":4343,"Ġprehen":4344,"Ġressourcen":4345,"Ġplies":4346,"Ġbestimmte":4347,"Ġmeasure":4348,"Ġmilitary":4349,"Ġherz":4350,"Ġbarkeit":4351,"Ġtatsache":4352,"Ġlls":4353,"Ġsomit":4354,"Ġmonitoring":4355,"Ġbleibt":4356,"Ġgenannten":4357,"Ġfert":4358,"Ġaden":4359,"Ġbeitragen":4360,"Ġexpe":4361,"Ġcirc":4362,"Ġnern":4363,"Ġior":4364,"Ġkons":4365,"Ġitaly":4366,"Ġassociation":4367,"Ġthern":4368,"Ġwenden":4369,"Ġequipment":4370,"Ġenlargement":4371,"Ġyer":4372,"Ġuna":4373,"Ġencourage":4374,"Ġexec":4375,"Ġactually":4376,"Ġinnovative":4377,"Ġspain":4378,"Ġdivers":4379,"Ġfluss":4380,"Ġbath":4381,"Ġgeeig":4382,"Ġiation":4383,"Ġcarried":4384,"Ġschu":4385,"Ġsummit":4386,"Ġicles":4387,"Ġdeliver":4388,"Ġmitte":4389,"Ġkro":4390,"Ġired":4391,"Ġturkey":4392,"Ġremo":4393,"ĠheiÃŁ":4394,"Ġtechnologie":4395,"Ġki":4396,"Ġnuclear":4397,"Ġichten":4398,"Ġlimit":4399,"Ġcondu":4400,"Ġffe":4401,"Ġahme":4402,"ĠÃ¶sterreich":4403,"Ġsty":4404,"Ġuell":4405,"Ġauffassung":4406,"Ġincludes":4407,"Ġbehandlung":4408,"ĠÃ¶st":4409,"Ġcriter":4410,"Ġcounter":4411,"Ġluxem":4412,"Ġrieben":4413,"Ġamt":4414,"Ġaufzu":4415,"Ġproviding":4416,"Ġunded":4417,"Ġconnection":4418,"Ġtransit":4419,"Ġpc":4420,"Ġsufficient":4421,"Ġtraffic":4422,"Ġerien":4423,"Ġkrank":4424,"Ġsun":4425,"Ġrestaurants":4426,"Ġnations":4427,"Ġdamen":4428,"Ġfan":4429,"Ġistischen":4430,"ĠgÃ¤n":4431,"Ġfinance":4432,"Ġgerecht":4433,"Ġidea":4434,"Ġrecently":4435,"Ġemer":4436,"Ġrural":4437,"Ġunternehmens":4438,"Ġkil":4439,"30":4440,"Ġvorzu":4441,"ĠbedÃ¼r":4442,"Ġjune":4443,"Ġhoben":4444,"Ġwaste":4445,"ĠbezÃ¼glich":4446,"Ġsech":4447,"Ġvergleich":4448,"Ġzweiten":4449,"Ġatic":4450,"Ġcondition":4451,"Ġcomprehen":4452,"Ġentscheidungen":4453,"Ġitu":4454,"Ġrid":4455,"ĠmÃ¤rkte":4456,"Ġdoing":4457,"Ġoil":4458,"up":4459,"Ġiency":4460,"Ġleider":4461,"Ġadap":4462,"Ġhapp":4463,"Ġelement":4464,"Ġnahe":4465,"Ġguarante":4466,"Ġmentioned":4467,"Ġcertainly":4468,"Ġending":4469,"Ġusst":4470,"ĠluÃŁ":4471,"Ġfeatures":4472,"Ġsubmitted":4473,"Ġanno":4474,"Ġsprach":4475,"Ġvalues":4476,"Ġgriff":4477,"Ġmedien":4478,"Ġlose":4479,"Ġstoffe":4480,"Ġneigh":4481,"Ġkulture":4482,"Ġphase":4483,"Ġapplications":4484,"Ġformer":4485,"Ġeffects":4486,"Ġmittl":4487,"Ġkit":4488,"Ġagent":4489,"ĠgefÃ¼":4490,"Ġimage":4491,"Ġreasons":4492,"Ġcd":4493,"Ġarrange":4494,"Ġfebru":4495,"Ġversor":4496,"Ġentwickeln":4497,"Ġleitet":4498,"ĠverfÃ¼gt":4499,"Ġenor":4500,"Ġfehler":4501,"Ġjedem":4502,"ĠjÃ¼n":4503,"ĠfranzÃ¶s":4504,"Ġbillion":4505,"Ġgrand":4506,"Ġbefinden":4507,"ĠspÃ¤ter":4508,"ĠhÃ¼":4509,"Ġrussland":4510,"Ġcomplex":4511,"Ġreformen":4512,"Ġfiles":4513,"Ġgrundlegen":4514,"Ġhaft":4515,"ĠÃ¤nderungsantrag":4516,"Ġkenntnis":4517,"Ġhohe":4518,"Ġech":4519,"Ġtat":4520,"Ġsn":4521,"Ġfreien":4522,"ĠverhÃ¤lt":4523,"Ġreceived":4524,"Ġ75":4525,"Ġtransl":4526,"Ġunique":4527,"Ġberat":4528,"Ġnahm":4529,"Ġ1998":4530,"Ġjugend":4531,"Ġdle":4532,"Ġibr":4533,"Ġktive":4534,"Ġkoso":4535,"Ġwarum":4536,"Ġanspruch":4537,"Ġausgaben":4538,"Ġzeiten":4539,"Ġaspects":4540,"Ġuren":4541,"Ġanwend":4542,"Ġanfang":4543,"Ġdesp":4544,"ar":4545,"Ġmorgen":4546,"Ġforschungs":4547,"Ġfisheries":4548,"Ġreserv":4549,"Ġsectors":4550,"Ġinfrastruktur":4551,"ĠlÃ¤sst":4552,"Ġhaps":4553,"Ġpurch":4554,"Ġdenke":4555,"Ġwinter":4556,"Ġaustausch":4557,"Ġausgest":4558,"Ġloss":4559,"Ġallows":4560,"Ġ500":4561,"Ġeuropes":4562,"Ġnit":4563,"Ġcovered":4564,"Ġyon":4565,"Ġlegislative":4566,"Ġbegin":4567,"Ġiterrane":4568,"Ġcorpor":4569,"Ġkeits":4570,"Ġcarry":4571,"Ġgarden":4572,"Ġagrar":4573,"ĠmilitÃ¤r":4574,"Ġconclusions":4575,"Ġabgeordneten":4576,"Ġproving":4577,"Ġgy":4578,"Ġangebot":4579,"Ġcommercial":4580,"Ġswi":4581,"Ġfix":4582,"Ġconsidered":4583,"Ġperhaps":4584,"Ġinfrastructure":4585,"Ġatta":4586,"Ġcustomer":4587,"Ġpag":4588,"Ġdelegation":4589,"Ġsetting":4590,"Ġherstell":4591,"Ġisland":4592,"ĠmÃ¤ÃŁig":4593,"Ġfolgenden":4594,"Ġchallenges":4595,"Ġzeitraum":4596,"Ġspanien":4597,"Ġcentury":4598,"Ġmovement":4599,"Ġgip":4600,"Ġgenie":4601,"Ġbestimmten":4602,"Ġungsverfahren":4603,"Ġusion":4604,"ĠbÃ¼ro":4605,"Ġlok":4606,"Ġtechnologies":4607,"Ġelectron":4608,"fr":4609,"Ġanlage":4610,"Ġlit":4611,"Ġrema":4612,"Ġgeneration":4613,"Ġeleg":4614,"Ġflugh":4615,"Ġoverall":4616,"ĠÃ¤nderungsantrÃ¤ge":4617,"Ġkonnte":4618,"Ġras":4619,"Ġblock":4620,"Ġnotwendigkeit":4621,"Ġsource":4622,"Ġxis":4623,"Ġeinrichtungen":4624,"ĠeuropÃ¤ischer":4625,"Ġgelegenheit":4626,"Ġanlagen":4627,"Ġantic":4628,"Ġreached":4629,"ĠkÃ¼rz":4630,"Ġspeed":4631,"Ġansatz":4632,"Ġersch":4633,"Ġbarce":4634,"Ġdouble":4635,"Ġpoor":4636,"Ġinstead":4637,"Ġdistribution":4638,"ĠlÃ¤nger":4639,"Ġminder":4640,"Ġdecember":4641,"Ġcolleag":4642,"Ġsha":4643,"Ġpressed":4644,"ĠdurchfÃ¼hrung":4645,"Ġbenefits":4646,"Ġtraditional":4647,"Ġ45":4648,"Ġsuccessful":4649,"Ġbundes":4650,"Ġmatters":4651,"Ġholiday":4652,"Ġye":4653,"Ġcalls":4654,"Ġplus":4655,"Ġdespite":4656,"Ġatell":4657,"Ġinflu":4658,"Ġsetzungen":4659,"Ġhind":4660,"Ġkleine":4661,"Ġregime":4662,"ĠberÃ¼":4663,"Ġaware":4664,"Ġtrend":4665,"Ġseries":4666,"Ġnes":4667,"Ġets":4668,"Ġlondon":4669,"Ġremains":4670,"Ġwise":4671,"Ġtempor":4672,"Ġphys":4673,"Ġwirken":4674,"Ġkosovo":4675,"Ġanerken":4676,"Ġpursu":4677,"Ġfficiency":4678,"Ġaugen":4679,"be":4680,"Ġstands":4681,"Ġsubsidi":4682,"Ġarbeitnehmer":4683,"Ġjul":4684,"Ġerster":4685,"Ġdp":4686,"Ġgame":4687,"Ġmers":4688,"Ġgolf":4689,"Ġforum":4690,"Ġstudy":4691,"Ġlager":4692,"Ġverpflichtungen":4693,"Ġexplo":4694,"Ġboo":4695,"Ġengen":4696,"Ġrought":4697,"Ġees":4698,"Ġregards":4699,"ĠkÃ¶rper":4700,"Ġnothing":4701,"ĠaktivitÃ¤ten":4702,"Ġspezie":4703,"Ġuniversit":4704,"ĠentschlieÃŁung":4705,"ĠÃ¼brigen":4706,"Ġmail":4707,"Ġlebensmittel":4708,"Ġamerican":4709,"ĠgebÃ¤u":4710,"Ġdepend":4711,"Ġonom":4712,"Ġbeob":4713,"Ġindependent":4714,"Ġclub":4715,"Ġadded":4716,"Ġbegrenz":4717,"Ġierter":4718,"Ġgress":4719,"Ġelektron":4720,"Ġkolleginnen":4721,"Ġcup":4722,"Ġaccession":4723,"Ġhear":4724,"Ġbase":4725,"Ġwesen":4726,"Ġghan":4727,"Ġfunden":4728,"Ġheben":4729,"Ġrec":4730,"Ġauswahl":4731,"Ġasked":4732,"Ġcontribute":4733,"Ġtier":4734,"Ġeing":4735,"Ġeigent":4736,"Ġmana":4737,"Ġcohes":4738,"Ġastrop":4739,"Ġmuseum":4740,"Ġversicher":4741,"Ġbarcelon":4742,"Ġchoice":4743,"ĠgehÃ¶ren":4744,"Ġplaced":4745,"Ġbanks":4746,"Ġmarch":4747,"Ġlegit":4748,"Ġshows":4749,"Ġox":4750,"Ġfishing":4751,"Ġstrand":4752,"Ġpromise":4753,"Ġbeitritts":4754,"Ġabsolute":4755,"Ġintegrated":4756,"Ġpil":4757,"Ġstag":4758,"ĠwÃ¤hlen":4759,"Ġlam":4760,"Ġgebieten":4761,"ĠÃ¤tzen":4762,"Ġmehrheit":4763,"Ġleader":4764,"Ġscientific":4765,"Ġgeleg":4766,"Ġverg":4767,"Ġsand":4768,"ĠÃ¶ffentlichkeit":4769,"Ġsprachen":4770,"Ġpossibility":4771,"ĠstÃ¤rker":4772,"Ġganzen":4773,"Ġfortunately":4774,"Ġverbindung":4775,"Ġases":4776,"Ġaugust":4777,"Ġrichtig":4778,"Ġresident":4779,"Ġmonet":4780,"ĠwÃ¼rd":4781,"Ġregulations":4782,"Ġbuilt":4783,"Ġony":4784,"Ġperman":4785,"Ġletter":4786,"Ġprotect":4787,"Ġtransparency":4788,"Ġallein":4789,"Ġiterranean":4790,"Ġstimme":4791,"Ġcriteria":4792,"Ġ1997":4793,"Ġbir":4794,"Ġdezember":4795,"Ġzeitpunkt":4796,"Ġmaterials":4797,"Ġassessment":4798,"Ġkarte":4799,"Ġerweise":4800,"Ġbildungs":4801,"Ġverhalten":4802,"Ġcontains":4803,"Ġdise":4804,"Ġtask":4805,"Ġcandid":4806,"Ġkonfli":4807,"Ġmiddle":4808,"Ġsteps":4809,"Ġ2011":4810,"Ġafghan":4811,"Ġaudio":4812,"Ġnic":4813,"Ġfurthermore":4814,"Ġdiscussion":4815,"Ġerr":4816,"Ġcomprehensive":4817,"euro":4818,"Ġbeschlossen":4819,"Ġmonaten":4820,"Ġwriting":4821,"Ġblu":4822,"Ġmechanis":4823,"Ġrig":4824,"Ġapartments":4825,"Ġdienen":4826,"Ġpoten":4827,"Ġspezial":4828,"Ġdeck":4829,"Ġclick":4830,"Ġdepart":4831,"Ġsports":4832,"Ġmas":4833,"Ġminimum":4834,"to":4835,"Ġtransparenz":4836,"Ġpersons":4837,"Ġscht":4838,"Ġsense":4839,"Ġhours":4840,"Ġemail":4841,"Ġbusinesses":4842,"Ġiting":4843,"Ġlicht":4844,"Ġreduction":4845,"Ġlla":4846,"Ġpover":4847,"Ġlatest":4848,"Ġentwurf":4849,"Ġinterpre":4850,"Ġwahlen":4851,"Ġquickly":4852,"Ġmeinen":4853,"Ġfolgerungen":4854,"Ġpriorities":4855,"Ġanteil":4856,"ĠgrÃ¶ÃŁten":4857,"Ġological":4858,"Ġanzahl":4859,"Ġwochen":4860,"Ġappear":4861,"Ġillegal":4862,"ĠheiÃŁt":4863,"Ġgesamte":4864,"Ġills":4865,"Ġmarketing":4866,"Ġerleich":4867,"Ġnice":4868,"Ġener":4869,"Ġllar":4870,"ĠÃ¤hn":4871,"Ġrace":4872,"Ġannoun":4873,"Ġinstallation":4874,"Ġstark":4875,"Ġgering":4876,"Ġguidelines":4877,"Ġtrain":4878,"ĠprÃ¤sidentschaft":4879,"Ġexpected":4880,"Ġpping":4881,"Ġanstreng":4882,"Ġsau":4883,"Ġwaffen":4884,"Ġaccord":4885,"Ġicher":4886,"Ġinfl":4887,"Ġaufnahme":4888,"Ġmai":4889,"Ġcohesion":4890,"ĠstÃ¶r":4891,"ĠtrÃ¤gt":4892,"Ġobtain":4893,"Ġunseres":4894,"Ġdeclar":4895,"Ġafrica":4896,"Ġniedr":4897,"Ġreduz":4898,"Ġ2020":4899,"ĠverstÃ¤ndlich":4900,"Ġavoid":4901,"Ġkriterien":4902,"Ġeinsch":4903,"Ġswit":4904,"Ġtete":4905,"Ġtelefon":4906,"Ġgot":4907,"Ġgnis":4908,"Ġattet":4909,"Ġactivity":4910,"Ġmoreover":4911,"Ġzweite":4912,"Ġcompletely":4913,"Ġadministrative":4914,"Ġinitiatives":4915,"Ġschnitt":4916,"Ġreforms":4917,"Ġref":4918,"Ġvorliegen":4919,"Ġsimple":4920,"Ġtheless":4921,"Ġiment":4922,"Ġerlau":4923,"Ġvoc":4924,"Ġvorhand":4925,"Ġsyn":4926,"Ġously":4927,"Ġpurpose":4928,"ĠÃ¶hn":4929,"Ġrepresentatives":4930,"Ġgewicht":4931,"ĠschlieÃŁend":4932,"Ġhumanitarian":4933,"Ġrechen":4934,"Ġsupported":4935,"Ġume":4936,"Ġstandpunkt":4937,"Ġbeginning":4938,"Ġsecure":4939,"Ġrapid":4940,"Ġzeuge":4941,"Ġequal":4942,"Ġdeten":4943,"Ġefficiency":4944,"Ġshop":4945,"Ġfrequ":4946,"Ġcongratul":4947,"Ġmeth":4948,"Ġimplemented":4949,"con":4950,"Ġkonzept":4951,"Ġmeines":4952,"Ġeindeut":4953,"Ġwoche":4954,"Ġcompetitiveness":4955,"Ġaufgaben":4956,"Ġ31":4957,"Ġcomfortable":4958,"Ġsibilities":4959,"Ġbelow":4960,"Ġsterdam":4961,"ĠdurchgefÃ¼hrt":4962,"Ġspar":4963,"Ġfire":4964,"Ġnungen":4965,"ĠgroÃŁer":4966,"Ġdeutschen":4967,"ĠjÃ¼ng":4968,"Ġbab":4969,"Ġaufenth":4970,"Ġkommissarin":4971,"Ġexperien":4972,"ĠÃ¤st":4973,"Ġseas":4974,"Ġwunder":4975,"Ġabsicht":4976,"Ġbudgetary":4977,"Ġstatement":4978,"ĠausschuÃŁ":4979,"Ġprepared":4980,"ĠtrÃ¤cht":4981,"Ġeffizient":4982,"Ġhighly":4983,"Ġush":4984,"Ġlower":4985,"Ġbarcelona":4986,"ĠwettbewerbsfÃ¤higkeit":4987,"Ġional":4988,"Ġgebiete":4989,"Ġbesu":4990,"Ġnationale":4991,"Ġstress":4992,"Ġwichtiger":4993,"Ġvorher":4994,"ĠbefÃ¼r":4995,"Ġcri":4996,"Ġwann":4997,"Ġproceed":4998,"Ġcs":4999,"Ġack":5000,"Ġfinancing":5001,"Ġeveryone":5002,"Ġvorhaben":5003,"Ġbekommen":5004,"Ġnissen":5005,"Ġamsterdam":5006,"ĠmÃ¼n":5007,"Ġdipl":5008,"Ġcreating":5009,"Ġmes":5010,"Ġatl":5011,"Ġbewertungen":5012,"Ġconsist":5013,"Ġtools":5014,"Ġkontin":5015,"Ġbeide":5016,"Ġpresents":5017,"Ġgangs":5018,"Ġfacilit":5019,"ĠergÃ¤n":5020,"ĠstraÃŁen":5021,"Ġreviews":5022,"Ġsolidarity":5023,"Ġdomin":5024,"Ġnationen":5025,"Ġnive":5026,"Ġzweck":5027,"ĠtÃ¤":5028,"Ġdf":5029,"Ġuses":5030,"Ġstic":5031,"Ġganze":5032,"Ġwhose":5033,"Ġsatell":5034,"Ġjun":5035,"Ġwandel":5036,"ĠstabilitÃ¤t":5037,"ĠkrÃ¤fte":5038,"Ġsamml":5039,"Ġgriechen":5040,"Ġurance":5041,"mitglie":5042,"Ġvilla":5043,"Ġwhite":5044,"Ġprefer":5045,"Ġsuffer":5046,"Ġcopy":5047,"Ġerkann":5048,"Ġprint":5049,"Ġnachdem":5050,"Ġjournal":5051,"Ġlernen":5052,"Ġverbre":5053,"Ġcontract":5054,"Ġanalysis":5055,"Ġtte":5056,"Ġfigur":5057,"Ġanzen":5058,"Ġchoose":5059,"Ġproperty":5060,"Ġiens":5061,"Ġstellungen":5062,"Ġbrought":5063,"Ġverwaltungs":5064,"Ġgefahr":5065,"ĠverfÃ¼gen":5066,"Ġapplied":5067,"Ġante":5068,"Ġstam":5069,"Ġpoverty":5070,"Ġauthority":5071,"Ġapartment":5072,"Ġcorrect":5073,"ĠnÃ¶":5074,"Ġhoff":5075,"Ġiffe":5076,"Ġurban":5077,"Ġature":5078,"Ġberichts":5079,"Ġarab":5080,"Ġarmut":5081,"Ġdiskut":5082,"Ġuted":5083,"Ġimproving":5084,"Ġseems":5085,"Ġbewusst":5086,"Ġterritor":5087,"Ġyor":5088,"Ġtarge":5089,"Ġplat":5090,"Ġkenn":5091,"Ġverwenden":5092,"Ġinstrumente":5093,"Ġgeschaffen":5094,"Ġapproved":5095,"Ġmonetary":5096,"Ġcou":5097,"Ġeffort":5098,"Ġprob":5099,"Ġnachbar":5100,"Ġneighbour":5101,"Ġradio":5102,"Ġformat":5103,"Ġarm":5104,"Ġtagen":5105,"Ġstrategic":5106,"Ġaccommod":5107,"Ġkommunikation":5108,"Ġvertrauen":5109,"Ġpted":5110,"Ġdennoch":5111,"Ġverage":5112,"Ġpension":5113,"ĠgerÃ¤":5114,"Ġvergangenen":5115,"Ġledig":5116,"Ġpayment":5117,"Ġpes":5118,"Ġeffizienz":5119,"Ġpressure":5120,"Ġherausforderungen":5121,"ĠerÃ¶ff":5122,"Ġabschluss":5123,"ĠwÃ¼nschen":5124,"Ġograph":5125,"Ġstellungnahme":5126,"32":5127,"Ġlediglich":5128,"Ġpopular":5129,"Ġsekre":5130,"Ġanders":5131,"Ġstil":5132,"Ġsymb":5133,"Ġfriendly":5134,"Ġhom":5135,"Ġroy":5136,"Ġagency":5137,"Ġkatastrop":5138,"Ġzahlreiche":5139,"Ġift":5140,"Ġike":5141,"Ġarily":5142,"Ġgerne":5143,"Ġartige":5144,"Ġdamage":5145,"Ġbeschluss":5146,"Ġzusetzen":5147,"Ġchair":5148,"Ġzeichnung":5149,"ĠprÃ¼ft":5150,"Ġdirection":5151,"Ġfes":5152,"Ġcurren":5153,"ĠangehÃ¶r":5154,"Ġgefunden":5155,"Ġaufgenommen":5156,"Ġbene":5157,"Ġtarget":5158,"Ġaspekte":5159,"Ġverse":5160,"Ġsagte":5161,"Ġlearn":5162,"Ġanstrengungen":5163,"Ġidi":5164,"Ġnommen":5165,"Ġvital":5166,"Ġdient":5167,"Ġfalt":5168,"Ġguten":5169,"Ġscre":5170,"for":5171,"Ġwege":5172,"Ġgeist":5173,"Ġitalian":5174,"Ġgast":5175,"Ġwalk":5176,"Ġklang":5177,"Ġpartei":5178,"ĠgÃ¼nst":5179,"Ġdefinition":5180,"kom":5181,"Ġreading":5182,"Ġzufrieden":5183,"Ġ1996":5184,"Ġrevol":5185,"Ġadoption":5186,"Ġflow":5187,"Ġstreet":5188,"Ġfamous":5189,"Ġwein":5190,"Ġpatent":5191,"Ġmac":5192,"Ġadministration":5193,"Ġfeed":5194,"Ġbewertung":5195,"Ġfts":5196,"Ġpath":5197,"Ġdebian":5198,"Ġdiplom":5199,"ĠschlÃ¼ssel":5200,"Ġschlussel":5201,"Ġmultil":5202,"Ġeingesch":5203,"Ġ300":5204,"Ġext":5205,"Ġbessere":5206,"Ġbringt":5207,"Ġerach":5208,"Ġproduz":5209,"Ġmethod":5210,"Ġaccordance":5211,"Ġelectric":5212,"Ġpeoples":5213,"ĠfÃ¶rdert":5214,"Ġerneut":5215,"Ġoperating":5216,"Ġinitiativen":5217,"Ġtliche":5218,"Ġgeln":5219,"Ġannahme":5220,"Ġverz":5221,"Ġjustiz":5222,"Ġkrieg":5223,"Ġforms":5224,"Ġthin":5225,"Ġkredit":5226,"Ġbehind":5227,"Ġdemokratischen":5228,"Ġgives":5229,"Ġamera":5230,"Ġrede":5231,"Ġpartnerschaft":5232,"Ġitable":5233,"Ġfederal":5234,"Ġwww":5235,"mar":5236,"ĠzufÃ¼hren":5237,"ĠvÃ¶llig":5238,"Ġplen":5239,"Ġkoll":5240,"Ġakte":5241,"Ġislam":5242,"Ġgerichte":5243,"Ġpointed":5244,"Ġparticipation":5245,"Ġsach":5246,"Ġrequires":5247,"Ġwahrschein":5248,"ĠfuÃŁ":5249,"Ġsuche":5250,"Ġbuild":5251,"Ġverme":5252,"Ġensuring":5253,"Ġvirt":5254,"Ġpi":5255,"Ġrelationship":5256,"Ġtechnik":5257,"Ġips":5258,"Ġkts":5259,"Ġblack":5260,"ĠÃ¤uÃŁerst":5261,"Ġirgend":5262,"Ġlled":5263,"Ġafrika":5264,"Ġerreich":5265,"Ġunfortunately":5266,"Ġpaid":5267,"Ġelections":5268,"Ġplain":5269,"Ġfru":5270,"Ġoctober":5271,"Ġelements":5272,"Ġrestr":5273,"Ġsache":5274,"Ġ1995":5275,"Ġategories":5276,"Ġamerica":5277,"Ġuniversity":5278,"Ġanpass":5279,"Ġene":5280,"Ġestic":5281,"Ġadjust":5282,"Ġpleas":5283,"Ġbrid":5284,"Ġconflict":5285,"Ġsofort":5286,"Ġbetrieb":5287,"Ġobvious":5288,"Ġsqu":5289,"Ġcompon":5290,"Ġini":5291,"Ġmitarbeiter":5292,"Ġsechs":5293,"Ġsolchen":5294,"Ġviolence":5295,"Ġcommunications":5296,"Ġnav":5297,"ĠgrenzÃ¼ber":5298,"Ġworth":5299,"Ġpublished":5300,"Ġeastern":5301,"ĠberÃ¼cksichtigt":5302,"Ġinfr":5303,"Ġgraf":5304,"Ġregierungs":5305,"Ġreference":5306,"Ġprecise":5307,"Ġwit":5308,"Ġgesellschaften":5309,"Ġcompetitive":5310,"Ġlaufen":5311,"Ġtert":5312,"Ġierenden":5313,"Ġfried":5314,"ĠhÃ¶her":5315,"Ġsky":5316,"Ġgreece":5317,"Ġyond":5318,"Ġstrom":5319,"Ġverstehen":5320,"Ġamen":5321,"Ġsonst":5322,".,":5323,"Ġdocuments":5324,"Ġacquis":5325,"Ġvollen":5326,"Ġerzielt":5327,"ĠerhÃ¤lt":5328,"Ġconcept":5329,"Ġgeorg":5330,"Ġbeyond":5331,"Ġgment":5332,"Ġbenutzer":5333,"Ġgriffen":5334,"Ġadvantage":5335,"Ġantworten":5336,"ĠgebÃ¼":5337,"ĠmÃ¤rz":5338,"Ġadopt":5339,"Ġhous":5340,"Ġeigene":5341,"Ġsimpl":5342,"Ġfestgelegt":5343,"Ġshown":5344,"ĠfÃ¤lt":5345,"ĠmÃ¤":5346,"Ġeinzig":5347,"Ġsorge":5348,"Ġalli":5349,"off":5350,"Ġfinn":5351,"Ġkapaz":5352,"Ġfine":5353,"Ġsummer":5354,"Ġreje":5355,"Ġspect":5356,"Ġtritt":5357,"Ġposes":5358,"Ġattem":5359,"Ġrechnung":5360,"Ġweist":5361,"Ġplayer":5362,"12":5363,"ex":5364,"Ġehem":5365,"Ġkonstru":5366,"Ġwonder":5367,"Ġprime":5368,"Ġexhib":5369,"Ġeingesetzt":5370,"Ġberuf":5371,"Ġdoppel":5372,".)":5373,"Ġnr":5374,"Ġsymbol":5375,"Ġlikely":5376,"Ġanalyse":5377,"Ġerfahrung":5378,"Ġmulti":5379,"Ġrelating":5380,"Ġially":5381,"Ġbauen":5382,"Ġsmo":5383,"Ġkonom":5384,"Ġfinanziellen":5385,"Ġschweiz":5386,"Ġjanuary":5387,"Ġfoot":5388,"Ġproduced":5389,"Ġcoast":5390,"Ġinhalt":5391,"Ġ2013":5392,"Ġpts":5393,"Ġrichtlinien":5394,"ĠhÃ¤ufig":5395,"Ġdefic":5396,"Ġsize":5397,"Ġsection":5398,"Ġsole":5399,"ĠgenieÃŁen":5400,"Ġrand":5401,"Ġforces":5402,"Ġrepresentative":5403,"Ġschritte":5404,"Ġserb":5405,"Ġstaatlichen":5406,"Ġversuchen":5407,"Ġ2012":5408,"Ġkrie":5409,"ĠkÃ¼nst":5410,"Ġgesprochen":5411,"Ġvorgelegt":5412,"Ġdiskrimin":5413,"Ġleb":5414,"Ġdisplay":5415,"Ġstant":5416,"ĠausfÃ¼hr":5417,"Ġklus":5418,"Ġnumer":5419,"Ġcript":5420,"Ġpoll":5421,"Ġtypes":5422,"Ġexer":5423,"Ġverpflichtet":5424,"Ġmodell":5425,"Ġregistr":5426,"Ġbern":5427,"Ġbesitz":5428,"Ġplaces":5429,"Ġunsch":5430,"Ġminor":5431,"Ġdeutsche":5432,"Ġmediterranean":5433,"Ġeinrichtung":5434,"Ġbrow":5435,"Ġpricht":5436,"Ġdanger":5437,"Ġistische":5438,"Ġbourg":5439,"ĠsÃ¤m":5440,"ĠÃ¼tzen":5441,"Ġsignal":5442,"Ġintervention":5443,"Ġsecretary":5444,"Ġperform":5445,"Ġinvestitions":5446,"Ġtemper":5447,"Ġtechnischen":5448,"Ġspo":5449,"ĠbÃ¼rgern":5450,"Ġpreci":5451,"Ġrisiko":5452,"Ġenglish":5453,"Ġjur":5454,"Ġwirkung":5455,"Ġpraxis":5456,"Ġexclusive":5457,"Ġ-,":5458,"Ġners":5459,"Ġnetworks":5460,"Ġrise":5461,"Ġafen":5462,"Ġmeinem":5463,"Ġaims":5464,"Ġ32":5465,"Ġgets":5466,"Ġpractical":5467,"Ġoktober":5468,"Ġrepe":5469,"Ġtelle":5470,"Ġtas":5471,"ĠkÃ¶nigreich":5472,"Ġwesentlichen":5473,"Ġcc":5474,"based":5475,"Ġireland":5476,"Ġregionalen":5477,"Ġunmittel":5478,"Ġeinigung":5479,"Ġsoph":5480,"Ġfasst":5481,"Ġfarmers":5482,"Ġspac":5483,"Ġdrug":5484,"Ġreli":5485,"Ġvictim":5486,"Ġdence":5487,"Ġchild":5488,"Ġschreiben":5489,"Ġentsprechenden":5490,"Ġecu":5491,"Ġdiskussion":5492,"Ġproduce":5493,"Ġachtung":5494,"Ġkomplex":5495,"Ġcrucial":5496,"Ġsonder":5497,"Ġbritish":5498,"Ġalloc":5499,"Ġroh":5500,"Ġscope":5501,"Ġsteigen":5502,"Ġintell":5503,"Ġmaximum":5504,"Ġdiscover":5505,"Ġleitung":5506,"Ġitation":5507,"Ġni":5508,"Ġrestrict":5509,"Ġformul":5510,"Ġ........":5511,"Ġmigration":5512,"ĠprÃ¼f":5513,"Ġlargest":5514,"Ġsales":5515,"Ġbeziehen":5516,"Ġrasch":5517,"Ġsage":5518,"Ġoffiz":5519,"Ġstanding":5520,"ĠdrÃ¼cklich":5521,"Ġlives":5522,"Ġdevelopments":5523,"Ġfaktor":5524,"Ġleave":5525,"ĠÃ¼bernach":5526,"Ġanderem":5527,"Ġtres":5528,"Ġdesk":5529,"Ġfolgende":5530,"Ġjuli":5531,"Ġallowed":5532,"ĠbedÃ¼rf":5533,"Ġara":5534,"Ġinvolve":5535,"Ġjuly":5536,"Ġ36":5537,"ĠfÃ¼hrer":5538,"Ġzweitens":5539,"Ġprovision":5540,"Ġconsequences":5541,"ĠkrÃ¤ft":5542,"Ġaustria":5543,"Ġgames":5544,"Ġeinzige":5545,"Ġverbesser":5546,"Ġgetroffen":5547,"Ġwoll":5548,"Ġford":5549,"Ġdic":5550,"Ġentsprechend":5551,"Ġpaket":5552,"Ġwom":5553,"Ġaimed":5554,"Ġaufmerksamkeit":5555,"Ġands":5556,"Ġruh":5557,"Ġcompromise":5558,"Ġstable":5559,"Ġstraf":5560,"Ġfamilie":5561,"Ġgiving":5562,"ĠfrÃ¼hstÃ¼ck":5563,"Ġgap":5564,"program":5565,"ĠlÃ¶sen":5566,"Ġacceptable":5567,"pl":5568,"Ġkategorien":5569,"ĠursprÃ¼n":5570,"Ġpleased":5571,"Ġschriftlich":5572,"Ġglauben":5573,"Ġspanish":5574,"Ġbestehenden":5575,"Ġ37":5576,"ĠgrÃ¶ÃŁte":5577,"Ġtalk":5578,"Ġkomfort":5579,"Ġimproved":5580,"Ġstehenden":5581,"Ġktions":5582,"Ġvorgehen":5583,"Ġformal":5584,"Ġstunden":5585,"Ġlove":5586,"Ġfrem":5587,"Ġiraq":5588,"Ġgovernance":5589,"Ġcomb":5590,"Ġcert":5591,"Ġyork":5592,"Ġktiven":5593,"ĠÃ¼berwachung":5594,"Ġns":5595,"Ġgetr":5596,"Ġherstellung":5597,"Ġschw":5598,"Ġdiejenigen":5599,"Ġbrief":5600,"Ġchallenge":5601,"Ġieb":5602,"Ġcoordination":5603,"Ġmittler":5604,"Ġ34":5605,"Ġifik":5606,"Ġcze":5607,"Ġpul":5608,"ĠprioritÃ¤ten":5609,"Ġtechnologien":5610,"Ġrefu":5611,"ĠtÃ¤tig":5612,"Ġgehend":5613,"Ġproduktions":5614,"Ġdefiz":5615,"Ġenterprises":5616,"Ġering":5617,"ĠhÃ¤re":5618,"Ġspirit":5619,"Ġbilden":5620,"Ġconv":5621,"Ġenn":5622,"Ġwr":5623,"ser":5624,"Ġkarten":5625,"Ġaffected":5626,"Ġtemporary":5627,"ĠfrÃ¼her":5628,"Ġbetroffenen":5629,"Ġassist":5630,"Ġthous":5631,"Ġschlussfolgerungen":5632,"Ġoben":5633,"Ġspann":5634,"Ġtechnische":5635,"Ġstaatliche":5636,"Ġcul":5637,"Ġtagung":5638,"ĠÃ¼bereinkommen":5639,"Ġcircum":5640,"Ġtourism":5641,"Ġmessage":5642,"Ġ197":5643,"Ġlisten":5644,"ĠwÃ¤lt":5645,"Ġcommitted":5646,"Ġsubstant":5647,"Ġconver":5648,"Ġopfer":5649,"Ġdrive":5650,"Ġestablishment":5651,"Ġeinkommen":5652,"Ġeingehen":5653,"Ġbege":5654,"Ġwent":5655,"Ġsinne":5656,"Ġstudi":5657,"Ġology":5658,"Ġrelease":5659,"Ġwee":5660,"Ġdict":5661,"ĠÃ¼tzt":5662,"Ġborders":5663,"Ġalte":5664,"Ġgi":5665,"Ġfloor":5666,"Ġax":5667,"Ġaktionen":5668,"Ġabend":5669,"Ġunemployment":5670,"Ġkombin":5671,"Ġequipped":5672,"Ġzeichnen":5673,"Ġvereinfach":5674,"Ġklass":5675,"Ġmaschinen":5676,"Ġimplementing":5677,"Ġberecht":5678,"Ġopening":5679,"Ġschau":5680,"Ġpfl":5681,"Ġonnen":5682,"Ġkeiner":5683,"Ġgett":5684,"Ġengagement":5685,"Ġvorteile":5686,"Ġaudit":5687,"Ġgrowing":5688,"Ġehemal":5689,"Ġgold":5690,"Ġbeteiligung":5691,"co":5692,"Ġwerke":5693,"Ġkingdom":5694,"Ġterrorism":5695,"Ġflor":5696,"Ġeasily":5697,"Ġsommer":5698,"Ġmindes":5699,"Ġuer":5700,"ĠkÃ¼nftigen":5701,"Ġgriechenland":5702,"ĠerfÃ¼llen":5703,"Ġexpert":5704,"Ġologie":5705,"Ġlehr":5706,"Ġlosigkeit":5707,"Ġdont":5708,"Ġbehinder":5709,"Ġverhindern":5710,"Ġpermanent":5711,"Ġexpressed":5712,"Ġdoor":5713,"Ġcampa":5714,"ĠtrÃ¤gen":5715,"Ġads":5716,"Ġbraucht":5717,"Ġpalest":5718,"Ġerwarten":5719,"Ġausbildung":5720,"Ġkonnten":5721,"Ġserve":5722,"ĠstÃ¤rkung":5723,"Ġgebaut":5724,"Ġsubsidiar":5725,"Ġcrime":5726,"Ġrechten":5727,"Ġjanuar":5728,"Ġniveau":5729,"Ġram":5730,"Ġzoll":5731,"Ġdiscussions":5732,"Ġhaushalt":5733,"ĠgÃ¤stebewertungen":5734,"Ġcompat":5735,"Ġbestell":5736,"Ġterrorismus":5737,"Ġtp":5738,"Ġbeseit":5739,"Ġrefuge":5740,"199":5741,"ĠpalÃ¤st":5742,"ro":5743,"Ġwritten":5744,"Ġelectronic":5745,"Ġintended":5746,"Ġmountain":5747,"Ġizin":5748,"Ġerfahrungen":5749,"ĠstÃ¤rken":5750,"Ġvereinbarung":5751,"Ġcriminal":5752,"Ġado":5753,"Ġfreie":5754,"Ġumgesetzt":5755,"Ġerachtens":5756,"Ġelse":5757,"ĠstraÃŁe":5758,"Ġfinanzielle":5759,"Ġkeyword":5760,"Ġerd":5761,"Ġussels":5762,"Ġlesen":5763,"Ġdefence":5764,"Ġoly":5765,"Ġleiten":5766,"ĠlÃ¼ck":5767,"Ġtail":5768,"Ġpatient":5769,"Ġschiff":5770,"Ġaccommodation":5771,"Ġobserv":5772,"Ġdinge":5773,"Ġvari":5774,"Ġbehandelt":5775,"Ġdirector":5776,"Ġique":5777,"Ġschreit":5778,"Ġferien":5779,"Ġjeweiligen":5780,"Ġliebe":5781,"Ġaktual":5782,"Ġpression":5783,"ĠauÃŁerhalb":5784,"Ġquant":5785,"Ġerfahren":5786,"Ġbilder":5787,"Ġboden":5788,"ĠilitÃ¤t":5789,"ĠarbeitsplÃ¤tze":5790,"Ġakter":5791,"Ġendit":5792,"Ġruption":5793,"Ġsitzung":5794,"Ġwarm":5795,"Ġstructures":5796,"Ġdecken":5797,"Ġstarted":5798,"Ġgewiesen":5799,"Ġkonsult":5800,"Ġurlaub":5801,"Ġgren":5802,"Ġsicherzustellen":5803,"Ġatom":5804,"ĠÃ¤ne":5805,"Ġpromoting":5806,"Ġworlds":5807,"Ġdv":5808,"Ġbrussels":5809,"Ġmedic":5810,"Ġherzen":5811,"Ġinstitutional":5812,"le":5813,"Ġwechsel":5814,"Ġdiscrimin":5815,"Ġsuchen":5816,"Ġnegative":5817,"Ġmap":5818,"Ġpresse":5819,"Ġkurs":5820,"Ġprivaten":5821,"Ġvielfalt":5822,"Ġpowers":5823,"Ġabor":5824,"Ġczech":5825,"fra":5826,"Ġlosen":5827,"Ġtter":5828,"Ġreisen":5829,"Ġiso":5830,"Ġemployees":5831,"Ġlege":5832,"Ġuz":5833,"Ġberichte":5834,"Ġiat":5835,"Ġcities":5836,"Ġgenutz":5837,"Ġumgebung":5838,"Ġverurs":5839,"Ġcampaign":5840,"11":5841,"Ġsammlung":5842,"Ġsecondly":5843,"Ġexception":5844,"Ġdebt":5845,"Ġereign":5846,"Ġgetragen":5847,"oper":5848,"Ġbeziehung":5849,"Ġhuge":5850,"ĠÃ¶konom":5851,"Ġlern":5852,"Ġrisks":5853,"Ġmodified":5854,"Ġcrete":5855,"ĠflÃ¼cht":5856,"Ġverbessert":5857,"ĠstÃ¤t":5858,"Ġsekret":5859,"Ġexisten":5860,"Ġprodukten":5861,"Ġsyr":5862,"Ġdecide":5863,"ĠvollstÃ¤ndig":5864,"Ġoperate":5865,"ĠselbstverstÃ¤ndlich":5866,"Ġextent":5867,"ĠalitÃ¤t":5868,"Ġmonth":5869,"system":5870,"Ġteach":5871,"ĠzusÃ¤tzliche":5872,"Ġresort":5873,"Ġmilliar":5874,"Ġirak":5875,"ĠbeschÃ¤ftigungs":5876,"):":5877,"Ġaverage":5878,"Ġbear":5879,"ĠauswÃ¤r":5880,"Ġprocesses":5881,"Ġleaders":5882,"Ġleitlinien":5883,"Ġ1990":5884,"ĠhÃ¤tten":5885,"Ġreibung":5886,"Ġforest":5887,"Ġbehalten":5888,"Ġwunsch":5889,"Ġerzeug":5890,"Ġsemin":5891,"Ġhersteller":5892,"ĠbehÃ¶rde":5893,"Ġbert":5894,"Ġdev":5895,"Ġresse":5896,"Ġenterprise":5897,"ĠrumÃ¤n":5898,"Ġnachhaltige":5899,"Ġimmediately":5900,"Ġprovider":5901,"Ġola":5902,"Ġaktuellen":5903,"Ġpromotion":5904,"Ġvorhanden":5905,"Ġswim":5906,"Ġdisast":5907,"ĠsekretÃ¤r":5908,"Ġgetan":5909,"Ġconstant":5910,"Ġanerkennung":5911,"au":5912,"Ġzt":5913,"Ġreduced":5914,"ĠschÃ¼tzen":5915,"Ġoptions":5916,"Ġweeks":5917,"Ġoccur":5918,"Ġtrack":5919,"Ġvul":5920,"ĠfÃ¼hrungs":5921,"Ġdanke":5922,"Ġopposition":5923,"Ġpak":5924,"19":5925,"Ġtodays":5926,"Ġdetail":5927,"Ġmous":5928,"Ġmorrow":5929,"Ġlinux":5930,"Ġwid":5931,"Ġanimal":5932,"Ġrevolution":5933,"Ġlear":5934,"ĠbeitrÃ¤":5935,"Ġreality":5936,"Ġcurrency":5937,"Ġmedizin":5938,"Ġbezogen":5939,"Ġconfidence":5940,"Ġabsatz":5941,"Ġadvert":5942,"Ġproport":5943,"Ġprozent":5944,"Ġsurve":5945,"Ġured":5946,"Ġresh":5947,"Ġkompeten":5948,"Ġhall":5949,"Ġgegenseit":5950,"Ġregelungen":5951,"ĠverlÃ¤ss":5952,"Ġquate":5953,"Ġdeclaration":5954,"Ġtomorrow":5955,"Ġhighest":5956,"Ġfab":5957,"Ġurgent":5958,"Ġconven":5959,"Ġpractices":5960,"ĠbÃ¼rgerinnen":5961,"Ġbreit":5962,"Ġtten":5963,"Ġfangen":5964,"Ġcraft":5965,"Ġheutigen":5966,"Ġ48":5967,"Ġtrust":5968,"Ġgrant":5969,"Ġstarting":5970,"Ġvereinten":5971,"Ġreag":5972,"Ġrespond":5973,"Ġschwierigkeiten":5974,"Ġries":5975,"ĠfÃ¼hrte":5976,"Ġfirms":5977,"Ġentwicklungen":5978,"Ġerkennen":5979,"ĠbrÃ¼ssel":5980,"Ġierende":5981,"Ġwachstums":5982,"ĠgewÃ¶hn":5983,"ĠgebÃ¤ude":5984,"Ġays":5985,"Ġgrundsatz":5986,"Ġinspe":5987,"Ġpositions":5988,"Ġtransparent":5989,"Ġtagesordnung":5990,"Ġsomet":5991,"mitglied":5992,"Ġeinklang":5993,"ĠerklÃ¤rt":5994,"Ġklicken":5995,"Ġassozi":5996,"Ġbodies":5997,"Ġmix":5998,"Ġsper":5999,"Ġwesentlich":6000,"Ġshops":6001,"Ġtom":6002,"Ġrenov":6003,"Ġworldwide":6004,"Ġita":6005,"Ġbarr":6006,"Ġangeboten":6007,"Ġaltungen":6008,"Ġconclusion":6009,"Ġfriedens":6010,"Ġerwer":6011,"Ġheil":6012,"Ġmanufactur":6013,"Ġdep":6014,"Ġjoin":6015,"ĠglÃ¼ck":6016,"Ġauern":6017,"Ġuseful":6018,"Ġfirstly":6019,"Ġsitzen":6020,"Ġzweifel":6021,"Ġuner":6022,"Ġpoland":6023,"Ġfields":6024,"Ġvillage":6025,"Ġeigentlich":6026,"Ġoffered":6027,"Ġgenu":6028,"Ġprotocol":6029,"Ġerstens":6030,"Ġico":6031,"ĠÃ¤l":6032,"Ġallgemeine":6033,"Ġtsche":6034,"Ġglobalen":6035,"Ġbetriebs":6036,"Ġgdp":6037,"Ġerwartet":6038,"Ġideas":6039,"Ġgeworden":6040,"Ġheav":6041,"Ġpolen":6042,"ĠfÃ¼hrten":6043,"Ġgarten":6044,"Ġgency":6045,"Ġgenug":6046,"Ġeffectively":6047,"Ġplanning":6048,"Ġsupporting":6049,"Ġafghanistan":6050,"Ġverabschie":6051,"ĠmÃ¶gen":6052,"ĠbenÃ¶tigen":6053,"Ġwine":6054,"Ġexact":6055,"Ġinterested":6056,"Ġkennen":6057,"Ġlanguages":6058,"Ġbein":6059,"Ġmie":6060,"Ġvergessen":6061,"Ġscience":6062,"Ġcha":6063,"Ġerinn":6064,"Ġality":6065,"Ġosten":6066,"Ġaul":6067,"Ġjem":6068,"Ġdir":6069,"Ġdaily":6070,"Ġfill":6071,"Ġenzen":6072,"Ġbarro":6073,"Ġaktionspl":6074,"Ġcommitments":6075,"Ġschaden":6076,"Ġnahr":6077,"Ġplayers":6078,"Ġlate":6079,"Ġdeath":6080,"Ġcircumst":6081,"Ġmindestens":6082,"Ġstyle":6083,"Ġgrunde":6084,"Ġdringend":6085,"Ġentgegen":6086,"Ġmaster":6087,"Ġinfringe":6088,"Ġadem":6089,"Ġtief":6090,"Ġflexible":6091,"Ġdetailed":6092,"ĠbegrÃ¼ÃŁe":6093,"ĠhÃ¶ren":6094,"Ġvat":6095,"Ġcycl":6096,"Ġault":6097,"Ġwenige":6098,"Ġmenschenrechts":6099,"reg":6100,"Ġsichern":6101,"Ġleute":6102,"Ġkommenden":6103,"Ġzert":6104,"Ġconsultation":6105,"Ġcers":6106,"Ġanfrage":6107,"Ġfirmen":6108,"Ġreichend":6109,"Ġroma":6110,"Ġmex":6111,"sch":6112,"Ġintroduction":6113,"Ġbedenken":6114,"Ġischem":6115,"Ġkorre":6116,"Ġoccas":6117,"Ġcape":6118,"Ġverantwortlich":6119,"Ġcin":6120,"Ġgoes":6121,"Ġvertrau":6122,"Ġerfolgt":6123,"Ġsometimes":6124,"ĠerÃ¶r":6125,"Ġmethods":6126,"Ġcompar":6127,"Ġvariety":6128,"Ġanne":6129,"Ġgekommen":6130,"Ġkontext":6131,"Ġ----":6132,"pr":6133,"Ġpaar":6134,"Ġsources":6135,"Ġrechnungs":6136,"Ġ39":6137,"Ġussed":6138,"Ġstrengthening":6139,"Ġcia":6140,"Ġourselves":6141,"Ġradi":6142,"Ġfoll":6143,"Ġcompens":6144,"Ġerforderlichen":6145,"ab":6146,"Ġky":6147,"Ġincor":6148,"Ġisol":6149,"Ġlangen":6150,"Ġfuer":6151,"Ġarchitect":6152,"Ġabe":6153,"Ġhostel":6154,"Ġwood":6155,"Ġ52":6156,"Ġaufsicht":6157,"Ġbedingt":6158,"Ġny":6159,"Ġmainly":6160,"ĠgrÃ¶ÃŁere":6161,"Ġwahrscheinlich":6162,"Ġflughafen":6163,"Ġfran":6164,"Ġselben":6165,"ĠsolidaritÃ¤t":6166,"Ġdiversity":6167,"Ġclients":6168,"Ġliance":6169,"Ġleiden":6170,"Ġdiscussed":6171,"Ġney":6172,"Ġmente":6173,"Ġtrading":6174,"Ġ196":6175,"Ġwiederhol":6176,"Ġud":6177,"Ġbeihilfe":6178,"Ġhagen":6179,"Ġrespective":6180,"Ġzin":6181,"Ġktors":6182,"ĠwÃ¤hl":6183,"Ġempfehlungen":6184,"Ġdates":6185,"Ġatmosphere":6186,"Ġerinner":6187,"Ġ//":6188,"ĠpÃ¤":6189,"Ġangaben":6190,"Ġbeginnen":6191,"Ġclosely":6192,"Ġzielle":6193,"ĠwÃ¤hrung":6194,"Ġeher":6195,"Ġspun":6196,"Ġgoal":6197,"Ġsser":6198,"Ġausgestattet":6199,"Ġero":6200,"Ġnevertheless":6201,"Ġexpendit":6202,"Ġrecognis":6203,"Ġbetreffenden":6204,"Ġsurround":6205,"Ġpolice":6206,"Ġmonate":6207,"Ġcircumstances":6208,"Ġplatform":6209,"Ġree":6210,"Ġrussian":6211,"Ġlaws":6212,"Ġinteresting":6213,"Ġnormen":6214,"Ġnumerous":6215,"Ġobligations":6216,"Ġentschlossen":6217,"Ġez":6218,"Ġblog":6219,"Ġraised":6220,"Ġinterpret":6221,"Ġties":6222,"Ġille":6223,"Ġvalid":6224,"Ġboten":6225,"Ġmarit":6226,"Ġnether":6227,"Ġchines":6228,"Ġarkt":6229,"Ġquellen":6230,"Ġprocessing":6231,"Ġlob":6232,"Ġcore":6233,"ĠeingeschrÃ¤n":6234,"Ġcaused":6235,"fraktion":6236,"Ġhappy":6237,"ĠbegrÃ¼ÃŁt":6238,"Ġigungen":6239,"Ġenhan":6240,"Ġoffering":6241,"Ġids":6242,"Ġsl":6243,"Ġentry":6244,"Ġinsurance":6245,"Ġvictims":6246,"Ġabkommens":6247,"Ġsupports":6248,"Ġblue":6249,"Ġrecommendations":6250,"Ġalp":6251,"ĠhÃ¤l":6252,"Ġexperts":6253,"Ġbarer":6254,"Ġtests":6255,"Ġbedro":6256,"15":6257,"Ġlichkeiten":6258,"Ġmarks":6259,"Ġentsprechen":6260,"Ġmedical":6261,"Ġscheme":6262,"Ġparalle":6263,"Ġincreasingly":6264,"Ġbeteiligten":6265,"Ġregionale":6266,"Ġaren":6267,"Ġindest":6268,"Ġschlag":6269,"Ġhause":6270,"Ġdomestic":6271,"Ġinit":6272,"Ġmeaning":6273,"Ġincl":6274,"ĠverhÃ¤ltnis":6275,"Ġ38":6276,"Ġamerika":6277,"Ġitude":6278,"Ġiste":6279,"Ġrichtige":6280,"Ġfalle":6281,"Ġ1994":6282,"Ġbip":6283,"Ġgesche":6284,"Ġcorporate":6285,"Ġinflation":6286,"Ġerns":6287,"ĠberÃ¼cksichtigen":6288,"Ġpsy":6289,"Ġhle":6290,"Ġcolleagues":6291,"Ġwol":6292,"Ġfein":6293,"Ġersuch":6294,"Ġmeld":6295,"Ġfax":6296,"Ġsteuern":6297,"ĠmÃ¤rkten":6298,"Ġbelar":6299,"Ġcis":6300,"Ġgelegten":6301,"Ġeb":6302,"spe":6303,"Ġbesonderen":6304,"ĠtÃ¤tigkeit":6305,"Ġbrowser":6306,"Ġros":6307,"Ġitzen":6308,"Ġintroduced":6309,"Ġupdate":6310,"Ġlaut":6311,"Ġversorgung":6312,"Ġtschech":6313,"Ġrain":6314,"Ġgewesen":6315,"Ġpayments":6316,"Ġimmobil":6317,"Ġperio":6318,"Ġgenutzt":6319,"Ġforced":6320,"ĠverÃ¶ffentlicht":6321,"Ġhistorical":6322,"Ġentspricht":6323,"Ġprozesses":6324,"Ġfeu":6325,"Ġkoordinierung":6326,"Ġconcrete":6327,"Ġalternat":6328,"Ġnetherlands":6329,"Ġmeetings":6330,"Ġcompeten":6331,"Ġrenew":6332,"Ġgranted":6333,"Ġraums":6334,"Ġpendence":6335,"Ġvisa":6336,"Ġunderstanding":6337,"Ġeinfluss":6338,"ĠgeschÃ¤ft":6339,"Ġparliamentary":6340,"Ġverfahrens":6341,"Ġery":6342,"Ġparag":6343,"ĠgewÃ¤hrleistet":6344,"Ġtaus":6345,"Ġbewe":6346,"Ġargument":6347,"ĠgrÃ¼":6348,"Ġtains":6349,"Ġcountrys":6350,"Ġgipfel":6351,"Ġhinsicht":6352,"Ġkungen":6353,"Ġstet":6354,"kon":6355,"Ġdol":6356,"Ġapprov":6357,"Ġuntersuchung":6358,"Ġgenuine":6359,"Ġotherwise":6360,"te":6361,"Ġvoting":6362,"Ġcomply":6363,"Ġtouch":6364,"Ġighted":6365,"Ġmart":6366,"Ġsort":6367,"Ġios":6368,"Ġrelative":6369,"Ġifizierung":6370,"Ġdarstellt":6371,"ĠÃ¼bernehmen":6372,"Ġholders":6373,"Ġletzte":6374,"Ġutive":6375,"ĠÃ¤re":6376,"Ġswimming":6377,"Ġdeca":6378,"Ġlabor":6379,"Ġfriends":6380,"Ġpopul":6381,"Ġstated":6382,"Ġbruch":6383,"Ġstreit":6384,"Ġoccup":6385,"Ġai":6386,"Ġiell":6387,"ĠbewÃ¤lt":6388,"Ġseines":6389,"Ġcongratulate":6390,"ĠberÃ¼hm":6391,"Ġkompro":6392,"Ġfirma":6393,"ĠfÃ¤llt":6394,"Ġishing":6395,"Ġnato":6396,"Ġergreifen":6397,"Ġvorrang":6398,"Ġanimals":6399,"Ġmilliarden":6400,"ĠvÃ¶lker":6401,"org":6402,"die":6403,"border":6404,"Ġonia":6405,"Ġrauch":6406,"Ġmigr":6407,"Ġpermit":6408,"Ġlost":6409,"Ġques":6410,"Ġlier":6411,"Ġmol":6412,"Ġifying":6413,"Ġppe":6414,"Ġzustand":6415,"Ġbeitritt":6416,"Ġibility":6417,"Ġobst":6418,"Ġdoubt":6419,"Ġcollection":6420,"Ġzumindest":6421,"Ġgue":6422,"Ġdeine":6423,"Ġseparate":6424,"Ġincome":6425,"Ġdollar":6426,"Ġkandid":6427,"Ġtab":6428,"Ġmanager":6429,"Ġdelivery":6430,"Ġschwar":6431,"Ġsubstantial":6432,"Ġchanged":6433,"Ġfertig":6434,"Ġassociated":6435,"Ġcandidate":6436,"Ġbay":6437,"ĠmÃ¶glicherweise":6438,"Ġvehicles":6439,"Ġentschieden":6440,"Ġvak":6441,"Ġerhol":6442,"Ġhistoric":6443,"Ġentsprechende":6444,"Ġilleg":6445,"Ġjahrhundert":6446,"Ġregulatory":6447,"Ġatoren":6448,"Ġstudents":6449,"Ġalone":6450,"Ġmenge":6451,"Ġsaying":6452,"Ġkrisen":6453,"Ġgrenze":6454,"Ġzahlungen":6455,"Ġfiscal":6456,"Ġlement":6457,"Ġimmigration":6458,"Ġmeister":6459,"Ġnamely":6460,"Ġsichten":6461,"ĠkÃ¼nftige":6462,"Ġsquare":6463,"Ġbalan":6464,"min":6465,"Ġvalle":6466,"Ġreducing":6467,"Ġasia":6468,"Ġmittelmeer":6469,"Ġverpflichtung":6470,"ĠlÃ¤ndlichen":6471,"Ġcription":6472,"Ġclient":6473,"Ġverur":6474,"Ġseven":6475,"Ġbuffe":6476,"Ġmechanism":6477,"Ġlokalen":6478,"Ġadv":6479,"Ġcritical":6480,"ĠerhÃ¶hen":6481,"Ġaufenthalt":6482,"ĠqualitÃ¤ts":6483,"Ġchinese":6484,"Ġwagen":6485,"Ġdead":6486,"Ġkompromiss":6487,"Ġestablishing":6488,"Ġadr":6489,"Ġmere":6490,"ĠzusÃ¤tzlich":6491,"Ġanbie":6492,"Ġholz":6493,"Ġaktuelle":6494,"ĠerfÃ¼llt":6495,"Ġista":6496,"Ġschla":6497,"Ġkannst":6498,"Ġ),":6499,"Ġhoriz":6500,"Ġdrogen":6501,"Ġkmu":6502,"Ġlake":6503,"Ġsession":6504,"Ġnotes":6505,"Ġscreen":6506,"Ġsobald":6507,"Ġbag":6508,"ĠerklÃ¤rte":6509,"Ġchtet":6510,"Ġraf":6511,"Ġcommunities":6512,"Ġmachine":6513,"Ġinvestigation":6514,"Ġkas":6515,"ho":6516,"Ġcharakter":6517,"Ġriver":6518,"Ġlegitim":6519,"Ġkonsequ":6520,"Ġaccepted":6521,"ĠkÃ¼che":6522,"Ġimages":6523,"Ġpalestin":6524,"Ġshopping":6525,"Ġumfas":6526,"Ġivers":6527,"Ġconsiderable":6528,"Ġeinhaltung":6529,"Ġexpenditure":6530,"Ġfunktionieren":6531,"Ġiede":6532,"Ġvit":6533,"Ġparame":6534,"Ġpreser":6535,"Ġconcluded":6536,"Ġfoundation":6537,"see":6538,"Ġ49":6539,"Ġnationaler":6540,"Ġmethoden":6541,"Ġivity":6542,"Ġbuy":6543,"Ġgestellten":6544,"Ġlock":6545,"Ġdritten":6546,"Ġlou":6547,"Ġzah":6548,"Ġyouth":6549,"Ġsets":6550,"Ġrecovery":6551,"Ġzz":6552,"Ġeindeutig":6553,"Ġselection":6554,"Ġstudie":6555,"Ġrepresents":6556,"Ġprotokoll":6557,"Ġ33":6558,"Ġpflicht":6559,"Ġruf":6560,"Ġzustimmung":6561,"ĠmaÃŁnahme":6562,"Ġimprovement":6563,"Ġausgezeich":6564,"Ġmoderne":6565,"Ġstechn":6566,"Ġzeugen":6567,"Ġcontinued":6568,"Ġkompon":6569,"Ġtherap":6570,"Ġhonour":6571,"Ġoperators":6572,"Ġastr":6573,"Ġsubs":6574,"ĠbegrÃ¼n":6575,"Ġhund":6576,"Ġgeograph":6577,"Ġwild":6578,"Ġhaupts":6579,"Ġissu":6580,"Ġgradu":6581,"Ġfuhr":6582,"Ġkommunikations":6583,"Ġschengen":6584,"Ġirland":6585,"Ġgrad":6586,"Ġangelegenheit":6587,"Ġark":6588,"ĠfÃ¼gen":6589,"Ġhot":6590,"Ġinary":6591,"Ġanerkann":6592,"Ġogle":6593,"Ġkonkrete":6594,"Ġausgewo":6595,"Ġwanderung":6596,"Ġvize":6597,"Ġhintergrund":6598,"Ġsuppl":6599,"Ġsigned":6600,"Ġhttp":6601,"Ġisierungs":6602,"Ġalban":6603,"Ġmehreren":6604,"Ġmicrosoft":6605,"ĠÃ¼b":6606,"Ġendlich":6607,"Ġgla":6608,"ĠgesprÃ¤":6609,"Ġhood":6610,"Ġrechtlichen":6611,"Ġduty":6612,"Ġvergangenheit":6613,"Ġseek":6614,"Ġcritic":6615,"Ġverfassung":6616,"ĠkÃ¤u":6617,"Ġusw":6618,"Ġversucht":6619,"Ġrecor":6620,"Ġbefug":6621,"Ġvorteil":6622,"Ġrisiken":6623,"Ġzahlung":6624,"Ġuals":6625,"Ġdistance":6626,"Ġanging":6627,"Ġcomments":6628,"Ġinfluence":6629,"Ġrichtet":6630,"Ġsuite":6631,"Ġderzeitigen":6632,"Ġstrategien":6633,"Ġnotwendigen":6634,"ĠabschlieÃŁend":6635,"Ġfand":6636,"ĠgemÃ¼":6637,"Ġdatab":6638,"Ġverstanden":6639,"Ġwilling":6640,"Ġcombat":6641,"Ġ65":6642,"Ġcaus":6643,"Ġanken":6644,"Ġgleiche":6645,"Ġoperational":6646,"Ġsolar":6647,"Ġinvestments":6648,"Ġpft":6649,"Ġselect":6650,"Ġreis":6651,"Ġvere":6652,"Ġcaf":6653,"Ġwebsites":6654,"Ġpartnern":6655,"Ġufen":6656,"Ġcount":6657,"Ġliter":6658,"Ġzep":6659,"Ġadvanced":6660,"ĠÃ¼berhaupt":6661,"Ġsens":6662,"%.":6663,"ĠwÃ¤hrungs":6664,"Ġworte":6665,"Ġwellness":6666,"Ġfunktionen":6667,"ad":6668,"Ġviet":6669,"Ġextensive":6670,"Ġnom":6671,"Ġthought":6672,"Ġpolize":6673,"Ġwanted":6674,"Ġchinas":6675,"Ġdarunter":6676,"Ġspecifically":6677,"ec":6678,"Ġzahlreichen":6679,"ĠdÃ¤n":6680,"Ġmanner":6681,"Ġarrangements":6682,"Ġteilnehmer":6683,"Ġtourist":6684,"Ġverfolgen":6685,"Ġbecame":6686,"Ġ2014":6687,"ĠeingefÃ¼hrt":6688,"Ġlies":6689,"Ġeisen":6690,"Ġcompared":6691,"Ġstake":6692,"Ġproducers":6693,"Ġappreci":6694,"Ġquiet":6695,"Ġkorea":6696,"Ġagentur":6697,"ĠendgÃ¼lt":6698,"Ġconsumption":6699,"ĠÃ¼gen":6700,"Ġspieler":6701,"Ġfreuen":6702,"Ġdl":6703,"Ġlastung":6704,"Ġpurposes":6705,"Ġexcess":6706,"ĠÃ¼berprÃ¼fung":6707,"Ġprobably":6708,"ĠbegrÃ¼ÃŁen":6709,"ĠzugÃ¤n":6710,"Ġinitial":6711,"Ġbosn":6712,"ĠÃ¶m":6713,"ĠstÃ¤nden":6714,"Ġtransform":6715,"Ġinstitute":6716,"Ġlinked":6717,"Ġgezeigt":6718,"Ġasylum":6719,"Ġweak":6720,"Ġgott":6721,"ĠausschlieÃŁlich":6722,"Ġfollowed":6723,"Ġelimin":6724,"Ġswiss":6725,"ĠÃ¼berzeugt":6726,"Ġ150":6727,"Ġrecognition":6728,"Ġgig":6729,"Ġorganised":6730,"Ġparking":6731,"Ġbol":6732,"Ġilen":6733,"Ġbreite":6734,"Ġmittag":6735,"Ġspring":6736,"Ġberichterstatterin":6737,"called":6738,"Ġinal":6739,"Ġbilateral":6740,"ĠrÃ¼st":6741,"Ġtargets":6742,"Ġerzielen":6743,"Ġhabit":6744,"Ġgoals":6745,"Ġprogrammen":6746,"Ġwon":6747,"ĠauswÃ¤rtige":6748,"Ġalia":6749,"Ġprotected":6750,"sie":6751,"Ġql":6752,"Ġschuld":6753,"ĠschÃ¤":6754,"Ġgenerally":6755,"Ġgigen":6756,"Ġvoraussetzungen":6757,"Ġfixed":6758,"Ġfigures":6759,"ĠwÃ¼nsche":6760,"Ġstets":6761,"ĠitÃ¤re":6762,"Ġschulden":6763,"Ġburden":6764,"ĠgeÃ¤ndert":6765,"ĠgerÃ¤te":6766,"Ġdirectives":6767,"Ġbeschreibung":6768,"Ġumfasst":6769,"Ġuting":6770,"Ġbenach":6771,"Ġparticipate":6772,"Ġrestru":6773,"Ġcustoms":6774,"Ġfulfil":6775,"Ġsorg":6776,"Ġbelarus":6777,"Ġbestimmt":6778,"Ġera":6779,"office":6780,"Ġkyo":6781,"Ġerzeugnisse":6782,"Ġnos":6783,"Ġ55":6784,"Ġdemands":6785,"Ġphilo":6786,"Ġextrem":6787,"Ġanything":6788,"Ġplants":6789,"Ġerweiter":6790,"Ġschule":6791,"Ġbuffet":6792,"Ġvas":6793,"Ġhervorragen":6794,"Ġften":6795,"Ġpolitischer":6796,"Ġhostels":6797,"Ġaltet":6798,"Ġhi":6799,"europe":6800,"operation":6801,"Ġstudies":6802,"Ġerschein":6803,"Ġfif":6804,"Ġmodernen":6805,"Ġerneuer":6806,"ĠverÃ¤nderungen":6807,"Ġpakistan":6808,"Ġopened":6809,"ĠiÃ¶":6810,"Ġdefined":6811,"Ġkaum":6812,"Ġmanaged":6813,"Ġmoral":6814,"Ġholding":6815,"Ġabgeschlossen":6816,"Ġutt":6817,"Ġizing":6818,"Ġpapier":6819,"Ġcypr":6820,"Ġwald":6821,"ĠstÃ¤nde":6822,"Ġtene":6823,"Ġfailure":6824,"Ġkilome":6825,"Ġessed":6826,"Ġgoogle":6827,"Ġstream":6828,"Ġentstehen":6829,"Ġniederland":6830,"Ġheard":6831,"Ġvermeiden":6832,"Ġnik":6833,"Ġsave":6834,"Ġstorage":6835,"Ġologischen":6836,"Ġdlich":6837,"Ġwatch":6838,"Ġremember":6839,"Ġdeckt":6840,"ĠÃ¼bernahme":6841,"Ġnummer":6842,"Ġerinnern":6843,"Ġkund":6844,"ĠzustÃ¤nd":6845,"Ġarmen":6846,"Ġcroat":6847,"Ġdifficulties":6848,"Ġvoice":6849,"Ġmotion":6850,"ĠzuverlÃ¤ss":6851,"Ġlearning":6852,"Ġumfassende":6853,"://":6854,"Ġstrukturen":6855,"Ġpictures":6856,"Ġeconomies":6857,"Ġsensit":6858,"Ġbemerk":6859,"ĠmÃ¶glichst":6860,"Ġunterschiedlichen":6861,"Ġpic":6862,"Ġallgemein":6863,"Ġclosed":6864,"Ġdiesel":6865,"Ġifen":6866,"Ġexpand":6867,"..":6868,"Ġhit":6869,"Ġmeter":6870,"Ġmonat":6871,"Ġrock":6872,"ĠwÃ¤ren":6873,"ĠmÃ¶gliche":6874,"Ġerlaubt":6875,"Ġinformed":6876,"ĠstÃ¤rk":6877,"Ġsenden":6878,"oder":6879,"Ġcharter":6880,"ĠstÃ¤dte":6881,"Ġrespekt":6882,"ĠhÃ¶chst":6883,"Ġbesuchen":6884,"str":6885,"Ġchurch":6886,"Ġtot":6887,"ĠbenÃ¶t":6888,"Ġvac":6889,"ĠjÃ¼ngsten":6890,"Ġhing":6891,"Ġgosla":6892,"Ġblin":6893,"Ġbeha":6894,"Ġfelt":6895,"Ġestim":6896,"Ġwelches":6897,"Ġorte":6898,"ge":6899,"Ġministerium":6900,"Ġskills":6901,"Ġmembership":6902,"Ġmittelt":6903,"ĠgegenwÃ¤rtig":6904,"Ġmobility":6905,"Ġprevention":6906,"Ġordnungs":6907,"Ġrufen":6908,"Ġnahrungs":6909,"ĠunabhÃ¤ngig":6910,"Ġcompliance":6911,"ĠbekrÃ¤ft":6912,"Ġamts":6913,"Ġiker":6914,"Ġnorthern":6915,"Ġvalu":6916,"Ġpercent":6917,"Ġunbedingt":6918,"Ġsth":6919,"Ġhistorischen":6920,"Ġsektors":6921,"Ġidung":6922,"Ġvolk":6923,"Ġphar":6924,"Ġkomp":6925,"Ġ1992":6926,"Ġbarroso":6927,"Ġcook":6928,"Ġalb":6929,"Ġwelcomes":6930,"ĠÃ¶k":6931,"Ġfamilies":6932,"Ġwerten":6933,"Ġreferred":6934,"Ġdescri":6935,"Ġselected":6936,"Ġentre":6937,"Ġaward":6938,"Ġnar":6939,"Ġearlier":6940,"Ġmetro":6941,"Ġverfol":6942,"Ġcolor":6943,"Ġproblemen":6944,"Ġgender":6945,"Ġconsolid":6946,"Ġhosp":6947,"Ġearth":6948,"Ġ400":6949,"Ġmaritime":6950,"Ġanda":6951,"Ġgelassen":6952,"Ġmutual":6953,"Ġcomponents":6954,"Ġea":6955,"Ġmik":6956,"Ġtrying":6957,"Ġ46":6958,"Ġsteiger":6959,"Ġzufolge":6960,"Ġsteel":6961,"Ġsym":6962,"Ġbritann":6963,"Ġwrong":6964,"Ġkontrollen":6965,"Ġbeur":6966,"Ġmarg":6967,"Ġcel":6968,"Ġevaluation":6969,"Ġdarstellen":6970,"Ġisierten":6971,"Ġsystemen":6972,"Ġstrict":6973,"Ġmenu":6974,"Ġfactory":6975,"Ġlaunched":6976,"Ġerfolgen":6977,"Ġsell":6978,"Ġfellow":6979,"Ġuniversal":6980,"ĠverfÃ¼gbar":6981,"Ġkomplett":6982,"Ġadvis":6983,"Ġgenehmigt":6984,"Ġinstance":6985,"Ġdanach":6986,"Ġidee":6987,"Ġbeauftrag":6988,"Ġklare":6989,"ĠkohÃ¤s":6990,"Ġbac":6991,"Ġabsolutely":6992,"Ġfestival":6993,"Ġdatei":6994,"Ġvorbereitung":6995,"Ġsagt":6996,"Ġsuitable":6997,"Ġevidence":6998,"Ġgehalten":6999,"Ġcomment":7000,"Ġetz":7001,"Ġmur":7002,"Ġcontr":7003,"Ġexem":7004,"Ġcasino":7005,"Ġmindest":7006,"ĠschÃ¶nen":7007,"Ġfitness":7008,"Ġdeep":7009,"Ġflexibility":7010,"Ġgetting":7011,"Ġstudio":7012,"Ġfresh":7013,"Ġato":7014,"Ġdrawn":7015,"Ġendor":7016,"Ġcards":7017,"Ġautomatically":7018,"Ġgenet":7019,"Ġromania":7020,"Ġrunning":7021,"Ġfebruary":7022,"Ġconserv":7023,"Ġfrag":7024,"Ġadapt":7025,"Ġdram":7026,"Ġstattfinden":7027,"Ġseh":7028,"Ġverbreit":7029,"Ġplanung":7030,"Ġfassungs":7031,"Ġnavig":7032,"Ġspannen":7033,"Ġworked":7034,"Ġandererseits":7035,");":7036,"Ġraise":7037,"Ġfacing":7038,"ĠfÃ¤n":7039,"Ġsurpr":7040,"Ġbeam":7041,"Ġymp":7042,"ĠnÃ¼tz":7043,"Ġnacht":7044,"vertrag":7045,"ĠgelÃ¶st":7046,"Ġaries":7047,"Ġattle":7048,"Ġunternehmer":7049,"Ġcontrols":7050,"Ġpfe":7051,"Ġinternationaler":7052,"Ġkroat":7053,"der":7054,"Ġjohn":7055,"Ġdiscrimination":7056,"Ġconsideration":7057,"Ġsmes":7058,"ĠzustÃ¤ndigen":7059,"Ġagencies":7060,"Ġattach":7061,"Ġprovin":7062,"Ġspeziell":7063,"Ġdienstleistungs":7064,"Ġette":7065,"Ġlug":7066,"Ġpropose":7067,"Ġproperly":7068,"Ġmotiv":7069,"Ġfeature":7070,"gener":7071,"Ġcolour":7072,"Ġeuch":7073,"Ġdurchschnitt":7074,"Ġbitten":7075,"Ġautomatisch":7076,"ĠsÃ¤mtliche":7077,"Ġoutcome":7078,"Ġhighl":7079,"ĠatmosphÃ¤re":7080,"al":7081,"Ġpresence":7082,"ĠpersÃ¶nlichen":7083,"ĠÃ¼bertrag":7084,"Ġschwierig":7085,"Ġtalking":7086,"ĠzerstÃ¶r":7087,"Ġerheblich":7088,"Ġbetracht":7089,"Ġdee":7090,"Ġ2015":7091,"Ġione":7092,"Ġfleisch":7093,"Ġbah":7094,"Ġjahrzehn":7095,"Ġstoffen":7096,"Ġdagegen":7097,"Ġfunctions":7098,"Ġarbeitslosigkeit":7099,"Ġquote":7100,"Ġreserve":7101,"Ġpoker":7102,"Ġistry":7103,"Ġvisitors":7104,"Ġpin":7105,"Ġweap":7106,"Ġelectricity":7107,"Ġpdf":7108,"Ġdish":7109,"Ġesten":7110,"Ġiele":7111,"Ġrecord":7112,"Ġschwerpunkt":7113,"Ġthemat":7114,"Ġconcentr":7115,"Ġconvinc":7116,"Ġdegree":7117,"ĠkÃ¼nstler":7118,"Ġsicherung":7119,"Ġoo":7120,"Ġorganization":7121,"Ġhochwert":7122,"ĠgrundsÃ¤tze":7123,"it":7124,"Ġfi":7125,"Ġrestruct":7126,"Ġcars":7127,"Ġroll":7128,"ĠkÃ¼nftig":7129,"Ġvorgeschlagenen":7130,"Ġzeichen":7131,"aus":7132,"Ġvisual":7133,"and":7134,"Ġentit":7135,"Ġeuropeans":7136,"ĠschwÃ¤":7137,"Ġley":7138,"Ġ1993":7139,"Ġbetrag":7140,"Ġandels":7141,"Ġressed":7142,"Ġcouncils":7143,"Ġpanor":7144,"Ġsweden":7145,"Ġania":7146,"Ġverfolgt":7147,"Ġbegan":7148,"Ġcompatible":7149,"Ġfinanzierungs":7150,"Ġzerland":7151,"Ġhinweisen":7152,"Ġlebt":7153,"Ġannounced":7154,"Ġstimul":7155,"Ġistics":7156,"ĠlieÃŁen":7157,"Ġusually":7158,"Ġbreiten":7159,"Ġkonflikt":7160,"Ġexter":7161,"Ġlandwir":7162,"ĠgrenzÃ¼berschreit":7163,"Ġmarktes":7164,"Ġprofitieren":7165,"Ġafrican":7166,"Ġcry":7167,"Ġsignificantly":7168,"Ġtie":7169,"ĠverstÃ¤ndnis":7170,"Ġfacilitate":7171,"Ġari":7172,"Ġviertel":7173,"Ġbahnhof":7174,"Ġperspective":7175,"Ġplug":7176,"Ġarz":7177,"Ġkonzentrieren":7178,"ĠschluÃŁ":7179,"Ġmc":7180,"Ġluxembourg":7181,"Ġincorpor":7182,"Ġqualifiz":7183,"Ġdorf":7184,"Ġnone":7185,"Ġstattung":7186,"Ġtut":7187,"Ġerstellen":7188,"Ġwea":7189,"Ġherunter":7190,"on":7191,"Ġindire":7192,"Ġahead":7193,"Ġwortern":7194,"ĠvertrÃ¤ge":7195,"Ġamoun":7196,"ĠprioritÃ¤t":7197,"Ġsatisf":7198,"eg":7199,"Ġizes":7200,"Ġterrace":7201,"Ġamerikanischen":7202,"Ġeingerichtet":7203,"Ġindustries":7204,"Ġdateien":7205,"Ġvotes":7206,"Ġtourismus":7207,"Ġmadrid":7208,"vor":7209,"Ġimmen":7210,"Ġbetrug":7211,"Ġkunfts":7212,"Ġidet":7213,"Ġhnung":7214,"ĠrÃ¤ume":7215,"Ġfing":7216,"Ġterritory":7217,"Ġleun":7218,"Ġpremier":7219,"Ġpati":7220,"Ġgir":7221,"ein":7222,"Ġcontinues":7223,"Ġcloser":7224,"ĠzustÃ¤ndig":7225,"Ġzentrale":7226,"Ġkapit":7227,"Ġanpassung":7228,"Ġfare":7229,"Ġernsth":7230,"Ġhoffen":7231,"Ġgeplan":7232,"Ġlined":7233,"Ġfrankfur":7234,"Ġmorning":7235,"Ġolymp":7236,"Ġcult":7237,"Ġbecoming":7238,"Ġmangel":7239,"Ġdenk":7240,"Ġpotenzial":7241,"Ġws":7242,"Ġdia":7243,"Ġapplies":7244,"Ġschulen":7245,"Ġteten":7246,"ĠflÃ¤che":7247,"Ġinfringement":7248,"Ġgaz":7249,"Ġshared":7250,"Ġador":7251,"Ġbeau":7252,"Ġachtet":7253,"mitgliedstaaten":7254,"Ġernst":7255,"Ġautonom":7256,"Ġsouthern":7257,"Ġtabled":7258,"Ġlying":7259,"Ġterritorial":7260,"Ġintelle":7261,"ĠentschlieÃŁungs":7262,"Ġintention":7263,"Ġleav":7264,"Ġzuletzt":7265,"Ġelegant":7266,"Ġfirmed":7267,"Ġparagraph":7268,"Ġindia":7269,"Ġfinanzen":7270,"Ġwants":7271,"ĠplÃ¤tze":7272,"Ġergeben":7273,"Ġteilnehmen":7274,"Ġkindern":7275,"Ġgeste":7276,"Ġdifferences":7277,"Ġbegriff":7278,"Ġmethode":7279,"Ġwien":7280,"Ġstarke":7281,"Ġschweden":7282,"Ġbeant":7283,"Ġacts":7284,"Ġproceedings":7285,"Ġentweder":7286,"Ġbeschleun":7287,"Ġthousands":7288,"Ġtechnological":7289,"Ġattack":7290,"making":7291,"und":7292,"Ġboot":7293,"Ġglaub":7294,"Ġprecisely":7295,"Ġachieving":7296,"Ġarischen":7297,"Ġangegeben":7298,"Ġfunctioning":7299,"Ġforth":7300,"Ġangt":7301,"Ġpowerful":7302,"Ġparallel":7303,"Ġ(+":7304,"Ġventions":7305,"ĠgefÃ¶rdert":7306,"ĠbrÃ¼":7307,"Ġspeech":7308,"ĠfranzÃ¶sischen":7309,"Ġsicherlich":7310,"Ġconsiders":7311,"Ġiii":7312,"Ġungleich":7313,"Ġimmediate":7314,"Ġinhalte":7315,"Ġkept":7316,"Ġappoint":7317,"Ġcomed":7318,"Ġconfirm":7319,"Ġstellte":7320,"Ġlesung":7321,"Ġfortschritt":7322,"Ġanwendungen":7323,"Ġerstellt":7324,"Ġtitel":7325,"Ġfreue":7326,"Ġniemand":7327,"Ġactual":7328,"Ġjer":7329,"ĠgrÃ¼nde":7330,"Ġmarken":7331,"Ġpicture":7332,"Ġense":7333,"Ġbeteiligt":7334,"Ġthreat":7335,"Ġslow":7336,"categories":7337,"Ġdealing":7338,"ĠmaÃŁe":7339,"Ġschlusselwortern":7340,"Ġore":7341,"Ġ85":7342,"Ġlaid":7343,"Ġfem":7344,"Ġgeeignet":7345,"ĠfÃ¤hig":7346,"Ġfolgend":7347,"Ġliefert":7348,"Ġunterkategorien":7349,"Ġangesprochen":7350,"Ġafrikan":7351,"Ġhner":7352,"Ġwickl":7353,"Ġmitgliedern":7354,"Ġsays":7355,"Ġunit":7356,"Ġweiterer":7357,"Ġgefordert":7358,"Ġrome":7359,"Ġcosta":7360,"Ġfron":7361,"Ġbalanced":7362,"Ġrelate":7363,"Ġ44":7364,"president":7365,"Ġacknow":7366,"Ġdach":7367,"Ġena":7368,"Ġbetont":7369,"Ġeasier":7370,"Ġconce":7371,"Ġdelay":7372,"Ġexercise":7373,"ĠstÃ¶":7374,"Ġambit":7375,"Ġthor":7376,"Ġnachfrage":7377,"Ġkul":7378,"Ġerkennt":7379,"Ġconduct":7380,"Ġpositiv":7381,"Ġzig":7382,"Ġzugleich":7383,"Ġbett":7384,"Ġdiskriminierung":7385,"Ġlehen":7386,"Ġunless":7387,"2000":7388,"Ġakzeptieren":7389,"Ġfebruar":7390,"Ġpurchase":7391,"Ġtrave":7392,"Ġgewinnen":7393,"Ġsale":7394,"Ġkulturellen":7395,"ĠberÃ¼cksichtigung":7396,"ĠbestÃ¤tigt":7397,"Ġregen":7398,"Ġliqu":7399,"Ġincent":7400,"Ġaccident":7401,"ĠgroÃŁbritann":7402,"Ġbuildings":7403,"Ġdun":7404,"Ġedu":7405,"Ġleihen":7406,"Ġbenutzt":7407,"Ġoffic":7408,"Ġdritte":7409,"Ġcele":7410,"Ġseason":7411,"Ġvorbe":7412,"Ġbure":7413,"Ġjene":7414,"Ġcure":7415,"Ġchron":7416,"Ġdiag":7417,"Ġbom":7418,"ĠÃ¼berprÃ¼fen":7419,"Ġgewiss":7420,"Ġhaften":7421,"Ġdesig":7422,"star":7423,"Ġwhom":7424,"Ġattempt":7425,"Ġspend":7426,"Ġcombined":7427,"Ġpsych":7428,"Ġichert":7429,"Ġzahlungs":7430,"Ġbetreiber":7431,"Ġsad":7432,"Ġdistrict":7433,"Ġhouses":7434,"Ġpir":7435,"Ġstahl":7436,"Ġturk":7437,"Ġrank":7438,"Ġsalz":7439,"Ġrevision":7440,"Ġcontinent":7441,"Ġyester":7442,"Ġindividuals":7443,"Ġkandidaten":7444,"Ġumen":7445,"Ġbesseren":7446,"ĠerwÃ¤hnt":7447,"50":7448,"Ġsitting":7449,"Ġpflanzen":7450,"Ġschutzes":7451,"Ġmont":7452,"Ġambitious":7453,"Ġinformieren":7454,"Ġverbot":7455,"Ġsides":7456,"Ġherausforderung":7457,"Ġintroduce":7458,"Ġphilosoph":7459,"Ġwillkommen":7460,"Ġangene":7461,"ĠjÃ¤hrlich":7462,"Ġgestaltung":7463,"Ġteilweise":7464,"ĠstÃ¼tz":7465,"Ġgenannt":7466,"Ġtoler":7467,"Ġbelgium":7468,"Ġerfordern":7469,"Ġrailway":7470,"Ġswitzerland":7471,"Ġallowing":7472,"Ġartigen":7473,"Ġwaters":7474,"ĠgegrÃ¼n":7475,"Ġbetrachtet":7476,"Ġluxemburg":7477,"Ġunzu":7478,"Ġdedic":7479,"Ġresidence":7480,"Ġspielt":7481,"ĠeuropÃ¤er":7482,"ĠgefÃ¼hl":7483,"Ġprograms":7484,"ĠernÃ¤hr":7485,"date":7486,"Ġequality":7487,"Ġnorm":7488,"Ġschlagen":7489,"Ġgence":7490,"Ġcitizen":7491,"Ġ95":7492,"Ġislands":7493,"Ġspending":7494,"Ġgelangen":7495,"Ġapproval":7496,"Ġcollabor":7497,"Ġfassen":7498,"Ġberaten":7499,"Ġborn":7500,"Ġplor":7501,"ĠverstÃ¤rkt":7502,"Ġernsthaf":7503,"Ġlinge":7504,"Ġprojekten":7505,"Ġumfassenden":7506,"Ġnotice":7507,"Ġreferend":7508,"Ġgreek":7509,"Ġjeweils":7510,"Ġappeal":7511,"Ġcommand":7512,"Ġensions":7513,"Ġbathroom":7514,"Ġbush":7515,"Ġcontinuing":7516,"Ġeiniger":7517,"Ġrefugees":7518,"Ġsiehe":7519,"Ġfactor":7520,"ĠzÃ¤hlen":7521,"Ġdecor":7522,"Ġsofern":7523,"Ġmalta":7524,"Ġmesse":7525,"Ġmeeres":7526,"Ġgeleistet":7527,"Ġexecutive":7528,"Ġverwirklich":7529,"Ġwarten":7530,"Ġdeficit":7531,"Ġprison":7532,"Ġfounded":7533,"Ġvulner":7534,"Ġnehmern":7535,"Ġoth":7536,"Ġfestgestellt":7537,"Ġliberalisierung":7538,"Ġerleben":7539,"Ġtam":7540,"Ġalien":7541,"Ġvoller":7542,"Ġexactly":7543,"Ġestate":7544,"Ġ195":7545,"Ġundertaking":7546,"Ġloo":7547,"Ġguarantees":7548,"Ġbras":7549,"sized":7550,"Ġinfo":7551,"siehe":7552,"Ġkitchen":7553,"Ġimit":7554,"Ġappar":7555,"Ġindependence":7556,"Ġ800":7557,"Ġlly":7558,"Ġtack":7559,"Ġmbly":7560,"Ġicts":7561,"Ġbureau":7562,"Ġfreiwill":7563,"Ġgros":7564,"Ġwiederauf":7565,"ĠbedÃ¼rfnisse":7566,"Ġfraud":7567,"Ġmitten":7568,"Ġbars":7569,"Ġwichtigste":7570,"Ġlibr":7571,"Ġbenutzen":7572,"ĠnÃ¤her":7573,"ĠvermÃ¶gen":7574,"Ġimmobilien":7575,"Ġfollows":7576,"Ġumb":7577,"Ġcalling":7578,"Ġgestalten":7579,"Ġirish":7580,"Ġcontrary":7581,"Ġhafen":7582,"Ġverlang":7583,"Ġintensiv":7584,"Ġrio":7585,"Ġtrotzdem":7586,"Ġmechanisms":7587,"Ġreaktion":7588,"Ġupgra":7589,"Ġ47":7590,"Ġruhe":7591,"year":7592,"Ġlor":7593,"Ġsle":7594,"ĠÃ¼bertragen":7595,"Ġlieben":7596,"ĠnÃ¤chste":7597,"Ġempfehlung":7598,"Ġrenewable":7599,"Ġhafte":7600,"Ġflash":7601,"Ġtasks":7602,"Ġbade":7603,"Ġdin":7604,"Ġzuvor":7605,"ĠhumanitÃ¤re":7606,"Ġcelebr":7607,"Ġverringerung":7608,"Ġimper":7609,"Ġdex":7610,"Ġunterschiede":7611,"Ġwalking":7612,"Ġbridge":7613,"Ġinside":7614,"Ġause":7615,"Ġnachhaltigen":7616,"Ġtaxation":7617,"Ġbehavi":7618,"Ġpeaceful":7619,"Ġapproxim":7620,"ĠgegenwÃ¤rtigen":7621,"Ġyu":7622,"Ġventure":7623,"Ġobviously":7624,"Ġseu":7625,"Ġwirkt":7626,"Ġrecommendation":7627,"Ġgrounds":7628,"ĠerhÃ¶hung":7629,"Ġeten":7630,"Ġplaying":7631,"Ġbackground":7632,"Ġzahlt":7633,"Ġheiz":7634,"Ġforcement":7635,"Ġminute":7636,"Ġgeschehen":7637,"Ġadequate":7638,"Ġtranslation":7639,"Ġscale":7640,"Ġurteil":7641,"ĠauslÃ¤nd":7642,"Ġkatastrophen":7643,"european":7644,"Ġfactors":7645,"ĠgÃ¼ter":7646,"Ġglas":7647,"Ġunsten":7648,"ĠwÃ¤l":7649,"Ġjet":7650,"Ġexpens":7651,"Ġgriech":7652,"ĠgrÃ¶ÃŁe":7653,"Ġgegangen":7654,"Ġtraum":7655,"Ġgerufen":7656,"Ġideen":7657,"Ġstudien":7658,"Ġgedanken":7659,"ĠschlÃ¤gt":7660,"Ġgelungen":7661,"ĠÃ¼bernachten":7662,"ĠtÃ¤tigkeiten":7663,"Ġexclu":7664,"Ġelection":7665,"Ġyourself":7666,"Ġunterschiedliche":7667,"Ġnoted":7668,"Ġpair":7669,"Ġabilities":7670,"Ġspeaking":7671,"Ġdepartment":7672,"ĠrumÃ¤nien":7673,"Ġrot":7674,"Ġcamp":7675,"Ġasien":7676,"Ġassembly":7677,"Ġbulgaria":7678,"Ġdisease":7679,"Ġconsistent":7680,"Ġconstitutional":7681,"ĠÃ¤lter":7682,"Ġbound":7683,"Ġdemokratische":7684,"Ġnumbers":7685,"Ġneither":7686,"Ġbindung":7687,"Ġtos":7688,"Ġconnected":7689,"Ġdaraus":7690,"Ġconcil":7691,"Ġbinding":7692,"ĠspÃ¤t":7693,"Ġpolitiken":7694,"Ġtere":7695,"Ġsaw":7696,"Ġaddressed":7697,"ĠgerÃ¤um":7698,"Ġsatellite":7699,"Ġnetzwerk":7700,"Ġaspekt":7701,"Ġanderes":7702,"Ġverbin":7703,"Ġvorsitzen":7704,"Ġgegebenen":7705,"Ġproportion":7706,"Ġelemente":7707,"Ġautor":7708,"Ġmutz":7709,"Ġpunkten":7710,"Ġkyoto":7711,"Ġpac":7712,"Ġona":7713,"Ġevening":7714,"Ġitems":7715,"Ġpara":7716,"Ġteams":7717,"Ġgor":7718,"Ġffend":7719,"Ġexperten":7720,"Ġjung":7721,"Ġbequ":7722,"Ġthinking":7723,"ĠerlÃ¤u":7724,"Ġglobalisierung":7725,"Ġdangerous":7726,"Ġroute":7727,"Ġbetonen":7728,"2006":7729,"Ġtelephone":7730,"Ġlobby":7731,"Ġsoweit":7732,"ĠgebÃ¼hren":7733,"Ġbesucher":7734,"Ġadvertising":7735,"Ġlizenz":7736,"ĠmaÃŁen":7737,"ĠschÃ¶ne":7738,"Ġextended":7739,"Ġreden":7740,"Ġlabel":7741,"ĠknÃ¼":7742,"Ġgezogen":7743,"Ġplayed":7744,"Ġcyprus":7745,"ĠausdrÃ¼cklich":7746,"ĠhÃ¤lfte":7747,"Ġaded":7748,"Ġparticipants":7749,"Ġbib":7750,"Ġhauses":7751,"ĠÃ¤ger":7752,"Ġfuel":7753,"Ġarbeitsmarkt":7754,"Ġbell":7755,"Ġlio":7756,"Ġstrongly":7757,"Ġmiteinander":7758,"Ġaccur":7759,"Ġjungen":7760,"Ġherit":7761,"ĠdrittlÃ¤ndern":7762,"Ġmini":7763,"Ġeindruck":7764,"Ġdatabase":7765,"Ġphp":7766,"Ġbelong":7767,"Ġaccounts":7768,"Ġdal":7769,"Ġwil":7770,"Ġbudgets":7771,"Ġumping":7772,"Ġhre":7773,"Ġsauna":7774,"Ġtsch":7775,"Ġanbieter":7776,"Ġcompleted":7777,"Ġnennen":7778,"Ġangebote":7779,"Ġpreparation":7780,"Ġungarn":7781,"Ġtenden":7782,"Ġsektoren":7783,"Ġhardware":7784,"Ġhomepage":7785,"Ġplanned":7786,"Ġveget":7787,"Ġstrukturfonds":7788,"Ġappears":7789,"Ġguard":7790,"Ġeinsetzen":7791,"Ġmandate":7792,"Ġologische":7793,"Ġhilfs":7794,"Ġverteidigung":7795,"Ġnachfolgend":7796,"Ġzivilgesellschaft":7797,"Ġcredi":7798,"Ġflag":7799,"ĠstabilitÃ¤ts":7800,"Ġerleichtern":7801,"Ġspezifischen":7802,"Ġimag":7803,"Ġgeschrieben":7804,"Ġwealth":7805,"Ġspunkt":7806,"Ġregistered":7807,"Ġcamera":7808,"Ġberufs":7809,"Ġlarger":7810,"Ġengineering":7811,"Ġhierzu":7812,"Ġexcept":7813,"Ġeurozone":7814,"Ġgewin":7815,"Ġpoly":7816,"Ġseriously":7817,"Ġproblemat":7818,"Ġmechanismus":7819,"Ġeste":7820,"Ġbelieb":7821,"Ġnutzer":7822,"Ġcoher":7823,"Ġadvice":7824,"ĠbÃ¶":7825,"ĠÃ¼ssen":7826,"Ġdvd":7827,"ĠerhÃ¶ht":7828,"Ġisierte":7829,"Ġzyper":7830,"Ġenh":7831,"Ġapplicable":7832,"Ġpossibilities":7833,"Ġjam":7834,"Ġemissionen":7835,"Ġcondem":7836,"Ġdatenschutz":7837,"Ġaufgefordert":7838,"Ġmutter":7839,"Ġentirely":7840,"Ġife":7841,"Ġfestlegung":7842,"Ġanyone":7843,"Ġunten":7844,"Ġbla":7845,"Ġrett":7846,"Ġuntersche":7847,"Ġdecl":7848,"Ġexhibition":7849,"Ġsieben":7850,"Ġweight":7851,"Ġvorschlags":7852,"Ġfilter":7853,"Ġidentified":7854,"Ġmatch":7855,"Ġrepresented":7856,"Ġindex":7857,"Ġfunktioniert":7858,"hotel":7859,"Ġsar":7860,"Ġbanking":7861,"es":7862,"Ġmodels":7863,"Ġhie":7864,"Ġkritik":7865,"Ġeinkauf":7866,"Ġlimits":7867,"Ġkampag":7868,"Ġcra":7869,"Ġindien":7870,"Ġrichtigen":7871,"Ġfailed":7872,"Ġkla":7873,"Ġchanging":7874,"Ġnetze":7875,"Ġtelevision":7876,"18":7877,"Ġmartin":7878,"Ġspread":7879,"Ġbesorg":7880,"Ġnut":7881,"Ġinformiert":7882,"Ġedition":7883,"Ġmanch":7884,"Ġglobale":7885,"Ġfla":7886,"Ġbringing":7887,"Ġavailability":7888,"Ġ**":7889,"Ġconsen":7890,"Ġrestric":7891,"Ġteilnahme":7892,"Ġpilot":7893,"Ġub":7894,"Ġilfe":7895,"Ġbranche":7896,"Ġministerin":7897,"Ġfahrzeuge":7898,"ĠgrÃ¶ÃŁeren":7899,"Ġsav":7900,"Ġterrasse":7901,"Ġhrt":7902,"Ġsolcher":7903,"ĠgewÃ¤hrt":7904,"ĠerklÃ¤ren":7905,"Ġdifference":7906,"Ġjunge":7907,"ĠdÃ¼rfte":7908,"Ġreasonable":7909,"Ġpest":7910,"Ġrestructuring":7911,"Ġmechanismen":7912,"Ġcessed":7913,"ĠzugÃ¤nglich":7914,"Ġenger":7915,"Ġkonkur":7916,"Ġrelativ":7917,"Ġesch":7918,"Ġdated":7919,"Ġpolitics":7920,"Ġtodes":7921,"Ġbrut":7922,"Ġrequested":7923,"Ġstatements":7924,"Ġberichten":7925,"Ġtexte":7926,"Ġgave":7927,"ĠbenÃ¶tigt":7928,"Ġevol":7929,"Ġqualit":7930,"Ġcontracts":7931,"Ġdeswegen":7932,"Ġquir":7933,"Ġiser":7934,"Ġpatienten":7935,"Ġhands":7936,"Ġlicherweise":7937,"Ġministry":7938,"Ġfarm":7939,"Ġchts":7940,"Ġwiders":7941,"out":7942,"Ġhingewiesen":7943,"Ġbestandteil":7944,"produ":7945,"Ġprofess":7946,"Ġspiele":7947,"Ġimmern":7948,"Ġiertes":7949,"Ġfigure":7950,"Ġsubsequ":7951,"13":7952,"Ġwelcher":7953,"Ġslovak":7954,"Ġwelcomed":7955,"ĠvorschlÃ¤gen":7956,"Ġemergency":7957,"Ġdos":7958,"Ġsupple":7959,"Ġorten":7960,"ĠausÃ¼":7961,"Ġadvance":7962,"Ġreiter":7963,"ĠhÃ¤ngt":7964,"Ġaspect":7965,"ĠunabhÃ¤ngigkeit":7966,"Ġbooks":7967,"Ġlandschaft":7968,"Ġimprovements":7969,"Ġwers":7970,"ĠkohÃ¤r":7971,"Ġalliance":7972,"ĠÃ¶ffnet":7973,"Ġned":7974,"Ġlaufenden":7975,"Ġabgeordnete":7976,"Ġandal":7977,"ĠgenÃ¼":7978,"Ġvorliegenden":7979,"Ġhungary":7980,"Ġaria":7981,"Ġanschluss":7982,"Ġarms":7983,"Ġ64":7984,"Ġverbindungen":7985,"Ġremind":7986,"Ġverlassen":7987,"Ġoffensichtlich":7988,"Ġran":7989,"Ġmitglieds":7990,"Ġatlantic":7991,"Ġdispos":7992,"Ġbritischen":7993,"Ġclaims":7994,"Ġhighlight":7995,"Ġlub":7996,"Ġaktions":7997,"ĠgroÃŁbritannien":7998,"Ġilien":7999,"Ġverlust":8000,"Ġbequem":8001,"Ġergriffen":8002,"Ġgain":8003,"ĠgeprÃ¼ft":8004,"Ġsubstances":8005,"Ġwiss":8006,"Ġedit":8007,"Ġstrategies":8008,"Ġtees":8009,"Ġsicherstellen":8010,"Ġvin":8011,"Ġinfe":8012,"Ġboost":8013,"Ġfear":8014,"Ġunternommen":8015,"Ġannt":8016,"Ġiling":8017,"ĠplÃ¤ne":8018,"Ġentertain":8019,"Ġofin":8020,"ĠpersÃ¶nlich":8021,"Ġchamber":8022,"2010":8023,"Ġyang":8024,"Ġverloren":8025,"Ġgaller":8026,"Ġmachines":8027,"Ġsanktionen":8028,"Ġfurn":8029,"ĠfÃ¼hrenden":8030,"Ġattractive":8031,"Ġstarken":8032,"Ġstone":8033,"Ġdurchaus":8034,"Ġanliegen":8035,"Ġenables":8036,"Ġasing":8037,"Ġhair":8038,"Ġtzeit":8039,"Ġseien":8040,"Ġmittlung":8041,"Ġamente":8042,"Ġhrase":8043,"Ġregistration":8044,"Ġvoraussetzung":8045,"Ġklimawandel":8046,"ĠgeschÃ¼tzt":8047,"Ġbedien":8048,"Ġpill":8049,"Ġstreben":8050,"Ġnames":8051,"Ġdiskutieren":8052,"ĠÃ¼berall":8053,"ĠmobilitÃ¤t":8054,"Ġgrundrechte":8055,"Ġgeiz":8056,"Ġump":8057,"Ġmehrwert":8058,"Ġrequests":8059,"Ġtesting":8060,"Ġleiter":8061,"Ġicians":8062,"Ġcos":8063,"Ġdevices":8064,"ĠschÃ¤den":8065,"Ġgeschle":8066,"Ġpalestinian":8067,"Ġzed":8068,"Ġspecies":8069,"ĠzeÃŁ":8070,"Ġcourts":8071,"Ġ1991":8072,"Ġael":8073,"Ġluxur":8074,"Ġprepare":8075,"Ġipal":8076,"Ġlaufe":8077,"Ġsehens":8078,"Ġcompensation":8079,"ĠprÃ¤z":8080,"Ġspent":8081,"Ġmarked":8082,"free":8083,"Ġdescription":8084,"Ġgenehmigung":8085,"Ġaqu":8086,"Ġmw":8087,"Ġvien":8088,"Ġabol":8089,"Ġowner":8090,"Ġprosper":8091,"ĠflexibilitÃ¤t":8092,"Ġgod":8093,"Ġvorlegen":8094,"Ġproposes":8095,"Ġharm":8096,"Ġbelgien":8097,"Ġerfordert":8098,"Ġmrd":8099,"Ġcovers":8100,"Ġextend":8101,"Ġnischen":8102,"Ġverhinder":8103,"Ġwohner":8104,"Ġausland":8105,"Ġeuropol":8106,"Ġspezifische":8107,"Ġbele":8108,"Ġcab":8109,"Ġprohib":8110,"Ġwinden":8111,"Ġresponsibilities":8112,"Ġparad":8113,"Ġfrankfurt":8114,"Ġmisch":8115,"Ġinterface":8116,"Ġrestrictions":8117,"ĠschÃ¼":8118,"Ġfruit":8119,"Ġwillen":8120,"Ġdarlehen":8121,"Ġhandlungen":8122,"Ġinens":8123,"ĠlÃ¤uft":8124,"Ġlokal":8125,"Ġ68":8126,"Ġberatung":8127,"Ġfremden":8128,"ĠbeitrÃ¤ge":8129,"Ġgebe":8130,"Ġams":8131,"Ġbug":8132,"Ġmanufacturers":8133,"ĠsÃ¤tze":8134,"Ġcarefully":8135,"Ġhinweis":8136,"Ġdeposit":8137,"Ġfreut":8138,"ĠropÃ¤":8139,"Ġiron":8140,"Ġversicherungs":8141,"ĠbetrÃ¤cht":8142,"ĠÃ¶der":8143,"Ġpfer":8144,"Ġehrgeiz":8145,"Ġfaktoren":8146,"Ġjean":8147,"Ġwendet":8148,"ĠhauptsÃ¤chlich":8149,"Ġsnow":8150,"Ġbuds":8151,"Ġgutes":8152,"Ġcroatia":8153,"Ġllung":8154,"Ġslowa":8155,"ĠÃ¼nft":8156,"Ġtransition":8157,"ĠempfÃ¤n":8158,"Ġreliable":8159,"Ġbeizu":8160,"Ġentitled":8161,"Ġrenten":8162,"Ġcombination":8163,"Ġmainten":8164,"Ġbse":8165,"Ġvielmehr":8166,"Ġwesentliche":8167,"Ġumstruktur":8168,"Ġausnahme":8169,"Ġlisted":8170,"Ġpleasant":8171,"Ġexports":8172,"sta":8173,"Ġfeier":8174,"Ġata":8175,"Ġpasst":8176,"Ġsituations":8177,"Ġmemor":8178,"Ġwait":8179,"Ġjederzeit":8180,"Ġwollte":8181,"Ġmetres":8182,"Ġverabschiedet":8183,"Ġumin":8184,"Ġversammlung":8185,"Ġpolitiker":8186,"Ġleng":8187,"net":8188,"Ġreven":8189,"Ġworfen":8190,"Ġlib":8191,"Ġzugunsten":8192,"Ġnahen":8193,"Ġitive":8194,"Ġkeeping":8195,"Ġtaste":8196,"Ġexperienced":8197,"Ġaustrian":8198,"ĠregelmÃ¤ÃŁ":8199,"Ġwissenschaftlichen":8200,"Ġennen":8201,"Ġships":8202,"Ġconsensus":8203,"Ġgarantie":8204,"Ġbewegung":8205,"Ġweapons":8206,"Ġcarbon":8207,"Ġgeschwind":8208,"Ġsanctions":8209,"Ġwortet":8210,"Ġacadem":8211,"Ġmilch":8212,"Ġmassive":8213,"Ġmultilateral":8214,"Ġzuge":8215,"Ġexpans":8216,"Ġobligation":8217,"ĠvernÃ¼nft":8218,"Ġgenannte":8219,"Ġerziel":8220,"Ġcycle":8221,"Ġratsvorsitz":8222,"Ġschriften":8223,"Ġstore":8224,"ĠzÃ¤hlt":8225,"Ġholds":8226,"Ġvehicle":8227,"Ġdeput":8228,"Ġkirche":8229,"Ġdrin":8230,"Ġhorizon":8231,"how":8232,"Ġqualified":8233,"Ġerror":8234,"Ġmoving":8235,"Ġdrugs":8236,"Ġader":8237,"Ġimports":8238,"Ġformular":8239,"Ġbecomes":8240,"Ġgeltenden":8241,"Ġsensitive":8242,"Ġwhil":8243,"Ġeco":8244,"Ġmanchmal":8245,"Ġbemer":8246,"ĠbÃ¶r":8247,"Ġtisch":8248,"Ġategory":8249,"Ġattform":8250,"ĠhÃ¤nd":8251,"Ġjemand":8252,"Ġrechtliche":8253,"ber":8254,"Ġmaintenance":8255,"ĠflÃ¤chen":8256,"Ġpackages":8257,"Ġmemory":8258,"Ġisa":8259,"ĠgerÃ¤t":8260,"Ġserved":8261,"Ġquarter":8262,"Ġinnovations":8263,"Ġconfirmed":8264,"Ġcollective":8265,"Ġwhilst":8266,"Ġalex":8267,"ĠÃ¤rm":8268,"Ġiro":8269,"Ġmax":8270,"Ġarticles":8271,"Ġsystemat":8272,"Ġexcessive":8273,"Ġnewsletter":8274,"mo":8275,"Ġveranstaltungen":8276,"Ġextension":8277,"Ġgesetzgebung":8278,"Ġmanufacturing":8279,"ĠbeeintrÃ¤cht":8280,"Ġpollution":8281,"Ġfiguration":8282,"ĠtÃ¤glich":8283,"Ġobstac":8284,"Ġbehaup":8285,"Ġlett":8286,"Ġthereby":8287,"Ġausreichend":8288,"Ġcorrespon":8289,"inter":8290,"Ġforget":8291,"Ġquer":8292,"Ġexpla":8293,"ĠuneingeschrÃ¤n":8294,"Ġkonvention":8295,"Ġvereign":8296,"ĠstaatssekretÃ¤r":8297,"Ġsovereign":8298,"Ġmichel":8299,"qual":8300,"Ġtischen":8301,"ĠgewÃ¼n":8302,"Ġbeachten":8303,"Ġmale":8304,"Ġkrankheiten":8305,"Ġtlichen":8306,"ĠkÃ¼rzlich":8307,"Ġtauch":8308,"Ġeli":8309,"Ġeight":8310,"Ġicks":8311,"ĠprozeÃŁ":8312,"Ġresto":8313,"Ġenge":8314,"Ġaktionsplan":8315,"Ġdynamic":8316,"Ġorgt":8317,"Ġverteilung":8318,".:":8319,"Ġtexts":8320,"Ġzil":8321,"Ġinzwischen":8322,"Ġdule":8323,"Ġbulgarien":8324,"Ġappointed":8325,"Ġultim":8326,"Ġentially":8327,"Ġimpossible":8328,"Ġfat":8329,"Ġjudicial":8330,"Ġcombating":8331,"fin":8332,"Ġkers":8333,"Ġald":8334,"Ġcentres":8335,"Ġiler":8336,"Ġpure":8337,"Ġtrip":8338,"Ġosteuro":8339,"Ġaler":8340,"Ġcontributions":8341,"Ġwishes":8342,"part":8343,"Ġconvinced":8344,"Ġmeinungs":8345,"Ġconfident":8346,"ĠvielfÃ¤lt":8347,"ĠdrÃ¤n":8348,"Ġtransaction":8349,"Ġausgewogen":8350,"Ġpresentation":8351,"Ġdetermined":8352,"Ġatlant":8353,"ĠgesprÃ¤che":8354,"Ġumfeld":8355,"Ġkontinu":8356,"Ġstitution":8357,"Ġexamples":8358,"Ġvoran":8359,"Ġinvolving":8360,"Ġuno":8361,"Ġschir":8362,"Ġautom":8363,"Ġvene":8364,"Ġspezielle":8365,"Ġbetrachten":8366,"Ġairlines":8367,"Ġprimary":8368,"Ġcuis":8369,"ĠjÃ¤hrigen":8370,"ĠnÃ¶tig":8371,"Ġsig":8372,"Ġfarben":8373,"Ġhart":8374,"Ġiums":8375,"Ġclin":8376,"Ġongoing":8377,"Ġrob":8378,"Ġwenigen":8379,"Ġsudan":8380,"Ġumweltschutz":8381,"Ġbeabsicht":8382,"Ġoutstanding":8383,"Ġorganiz":8384,"Ġintensive":8385,"Ġdich":8386,"Ġwarded":8387,"Ġidentify":8388,"ĠÃ¼bergangs":8389,"Ġateralen":8390,"Ġrt":8391,"Ġsah":8392,"Ġprivacy":8393,"Ġschlaf":8394,"Ġgebrauch":8395,"Ġresulting":8396,"Ġsupervis":8397,"Ġteren":8398,"Ġwashing":8399,"Ġcastle":8400,"Ġinvestors":8401,"Ġabsolut":8402,"Ġvielzahl":8403,"2001":8404,"Ġexplor":8405,"Ġtreib":8406,"Ġombuds":8407,"Ġcommittees":8408,"Ġfeststellen":8409,"Ġwahren":8410,"Ġhelping":8411,"Ġexpertise":8412,"Ġhir":8413,"Ġlatin":8414,"Ġgreatest":8415,"Ġ42":8416,"Ġzustimmen":8417,"Ġconciliation":8418,"Ġstal":8419,"Ġrapporteurs":8420,"Ġgesetze":8421,"fi":8422,"Ġexpression":8423,"Ġray":8424,"Ġeuros":8425,"Ġbeds":8426,"Ġcourses":8427,"Ġkranken":8428,"Ġnearly":8429,"Ġkno":8430,"ĠregelmÃ¤ÃŁig":8431,"Ġmagn":8432,"Ġwelchen":8433,"Ġpenal":8434,"Ġpositiven":8435,"Ġhann":8436,"Ġfinanziert":8437,"Ġerhebliche":8438,"Ġcategory":8439,"ĠÃ¶ger":8440,"Ġmeldung":8441,"Ġarchitecture":8442,"Ġschneller":8443,"of":8444,"Ġwonderful":8445,"Ġerscheint":8446,"Ġbutton":8447,"Ġfunk":8448,"ĠhÃ¤user":8449,"Ġenhance":8450,"Ġglass":8451,"Ġvessel":8452,"Ġexistence":8453,"Ġentrepr":8454,"Ġpy":8455,"ĠentwicklungslÃ¤ndern":8456,"Ġumzusetzen":8457,"Ġreception":8458,"Ġderung":8459,"Ġfanta":8460,"Ġgross":8461,"Ġstol":8462,"Ġvereinbarungen":8463,"Ġwerbe":8464,"Ġaffect":8465,"Ġcompetence":8466,"Ġlieb":8467,"Ġentdeck":8468,"Ġkopf":8469,"Ġkompliz":8470,"Ġwebseite":8471,"Ġcharged":8472,"general":8473,"Ġcoffe":8474,"ĠeinschrÃ¤n":8475,"Ġdlichen":8476,"Ġgebiets":8477,"Ġprozesse":8478,"Ġvig":8479,"Ġheads":8480,"Ġconstructive":8481,"Ġbeauty":8482,"Ġpeter":8483,"Ġhaltet":8484,"Ġadvoc":8485,"Ġannex":8486,"Ġproof":8487,"Ġanton":8488,"Ġends":8489,"Ġputting":8490,"Ġbaby":8491,"Ġtalks":8492,"Ġbesorgnis":8493,"%,":8494,"Ġkonsol":8495,"Ġlangfristige":8496,"Ġverfassungs":8497,"Ġinvolvement":8498,"Ġvict":8499,"Ġwareness":8500,"Ġportfol":8501,"Ġheritage":8502,"ĠkÃ¼ste":8503,"Ġheimat":8504,"Ġpush":8505,"ĠhÃ¶chsten":8506,"25":8507,"Ġeffektiv":8508,"Ġaussicht":8509,"Ġrupt":8510,"Ġschools":8511,"Ġiano":8512,"Ġtypical":8513,"Ġorders":8514,"Ġkunde":8515,"Ġprospe":8516,"Ġliability":8517,"Ġgemeinschaften":8518,"Ġherrschen":8519,"Ġphysical":8520,"Ġconvenient":8521,"Ġspacious":8522,"strateg":8523,"Ġauseinander":8524,"Ġpful":8525,"Ġvorschlagen":8526,"Ġmittels":8527,"Ġadvantages":8528,"Ġbiggest":8529,"Ġseeking":8530,"Ġeffectiveness":8531,"Ġturkish":8532,"ĠstoÃŁ":8533,"Ġreagieren":8534,"ĠtÃ¼rk":8535,"Ġarzne":8536,"Ġcalcul":8537,"Ġelected":8538,"Ġcash":8539,"Ġfertigt":8540,"Ġmack":8541,"Ġphotograph":8542,"Ġehrte":8543,"Ġcuisine":8544,"Ġhill":8545,"Ġticket":8546,"ĠgegrÃ¼ndet":8547,"Ġfischer":8548,"Ġcopyright":8549,"Ġenforcement":8550,"ĠkÃ¼nd":8551,"Ġersatz":8552,"Ġopinions":8553,"Ġminderheiten":8554,"Ġeinbeziehung":8555,"Ġaktive":8556,"Ġkolle":8557,"Ġgefahren":8558,"Ġdeputy":8559,"Ġprodi":8560,"Ġhelpful":8561,"Ġpatients":8562,"Ġbeweg":8563,"Ġtruly":8564,"Ġvalley":8565,"Ġissued":8566,"ĠverlÃ¤nger":8567,"Ġmeant":8568,"Ġportal":8569,"Ġweltweiten":8570,"Ġeinzigen":8571,"Ġreligious":8572,"Ġkomment":8573,"Ġplays":8574,"Ġawareness":8575,"Ġbefassen":8576,"Ġigern":8577,"Ġschwach":8578,"Ġtrial":8579,"Ġmyself":8580,"Ġraucher":8581,"Ġausgang":8582,"Ġaircraft":8583,"ĠerklÃ¤rungen":8584,"Ġdutch":8585,"Ġedia":8586,"Ġverschmutz":8587,"Ġintellect":8588,"Ġremove":8589,"Ġbalkan":8590,"Ġvideos":8591,"Ġeads":8592,"2013":8593,"Ġverringern":8594,"Ġtiere":8595,"Ġgarantiert":8596,"Ġgesetzes":8597,"Ġ600":8598,"ĠÃ¤tzung":8599,"Ġenormous":8600,"09":8601,"Ġunacceptable":8602,"Ġreply":8603,"res":8604,"Ġgeheim":8605,"Ġwaiting":8606,"Ġunmittelbar":8607,"ĠpalÃ¤stinens":8608,"ĠbemÃ¼hen":8609,"Ġdesire":8610,"Ġthreaten":8611,"Ġtrends":8612,"Ġpalace":8613,"Ġgestern":8614,"Ġpain":8615,"Ġamounts":8616,"Ġdau":8617,"Ġdeter":8618,"Ġcool":8619,"Ġeln":8620,"Ġeisenbahn":8621,"Ġdisch":8622,"Ġzulegen":8623,"Ġereignisse":8624,"Ġthu":8625,"Ġverarbeitung":8626,"Ġmaschine":8627,"Ġgrem":8628,"Ġbetrieben":8629,"Ġnaturally":8630,"ĠzustÃ¤ndige":8631,"Ġsaint":8632,"Ġfreiheiten":8633,"Ġangemessene":8634,"Ġeingere":8635,"Ġlandwirte":8636,"Ġgage":8637,"Ġhebung":8638,"Ġpassed":8639,"po":8640,"Ġdisposal":8641,"Ġision":8642,"ĠvollstÃ¤ndige":8643,"Ġchristian":8644,"Ġdescribed":8645,"Ġrene":8646,"Ġmaria":8647,"Ġgien":8648,"Ġreligion":8649,"Ġimpress":8650,"Ġcontained":8651,"Ġphen":8652,"Ġassum":8653,"Ġadresse":8654,"Ġitalienischen":8655,"Ġliberalisation":8656,"Ġnels":8657,"Ġinfolge":8658,"Ġinstitutionellen":8659,"Ġolo":8660,"Ġkaufen":8661,"ĠkÃ¶":8662,"Ġemo":8663,"Ġvolunt":8664,"Ġintellig":8665,"Ġapproximately":8666,"Ġala":8667,"Ġhappened":8668,"Ġlounge":8669,"ĠgroÃŁes":8670,"Ġabfall":8671,"Ġsonnen":8672,"Ġdamals":8673,"Ġnachzu":8674,"Ġtech":8675,"Ġhergestellt":8676,"Ġstrength":8677,"Ġdedicated":8678,"Ġtold":8679,"Ġcreative":8680,"Ġconclude":8681,"Ġrecognised":8682,"ĠhÃ¤ngen":8683,"Ġaviation":8684,"Ġraw":8685,"Ġgebil":8686,"Ġdiseases":8687,"Ġargent":8688,"Ġzusatz":8689,"Ġechte":8690,"Ġarme":8691,"Ġfahrzeug":8692,"Ġimittel":8693,"Ġlabe":8694,"Ġprinzipien":8695,"Ġunable":8696,"Ġausbau":8697,"Ġdriving":8698,"Ġllo":8699,"Ġbestre":8700,"Ġstimmt":8701,"Ġhoher":8702,"Ġverlangen":8703,"Ġtennis":8704,"Ġmichael":8705,"Ġroyal":8706,"Ġhospital":8707,"Ġausstattung":8708,"Ġbetreffend":8709,"Ġreferendum":8710,"Ġstatistics":8711,"Ġschien":8712,"Ġderartige":8713,"Ġneutr":8714,"Ġverhandlungs":8715,"Ġpolitisch":8716,"Ġerwachsen":8717,"Ġwesten":8718,"ĠgewÃ¤sser":8719,"Ġdemocrats":8720,"Ġpreviously":8721,"Ġemphasis":8722,"Ġliquid":8723,"Ġoul":8724,"Ġ43":8725,"Ġmountains":8726,"Ġschafft":8727,"Ġmuslim":8728,"Ġunanim":8729,"Ġrevis":8730,"Ġreleased":8731,"Ġharmonisierung":8732,"Ġhaber":8733,"Ġzypern":8734,"Ġwies":8735,"Ġassets":8736,"Ġdokumente":8737,"Ġwohnung":8738,"Ġeinzelne":8739,"Ġarrival":8740,"Ġzunehmend":8741,"Ġtitle":8742,"Ġkroatien":8743,"Ġofficials":8744,"Ġeinwanderung":8745,"Ġverschle":8746,"Ġleadership":8747,"Ġtungs":8748,"Ġowned":8749,"Ġverbesserungen":8750,"Ġaccessible":8751,"ĠverstÃ¤rken":8752,"ĠunterstÃ¼tze":8753,"Ġyesterday":8754,"Ġentscheidungs":8755,"Ġkeinerlei":8756,"Ġmarine":8757,"Ġpassengers":8758,"Ġlets":8759,"Ġprag":8760,"Ġmittelpunkt":8761,"Ġtan":8762,"Ġeinfache":8763,"Ġherzlich":8764,"Ġweiteres":8765,"Ġsuccessfully":8766,"ĠabhÃ¤ngig":8767,"Ġchain":8768,"Ġbeweis":8769,"Ġhonourable":8770,"Ġvollkommen":8771,"Ġbonus":8772,"Ġguaranteed":8773,"Ġchairman":8774,"Ġermut":8775,"Ġgewisse":8776,"Ġremaining":8777,"Ġiles":8778,"Ġbrings":8779,"Ġwissens":8780,"Ġzego":8781,"ĠhÃ¶here":8782,"Ġreflect":8783,"Ġnahrungsmittel":8784,"Ġcm":8785,"Ġbeinhaltet":8786,"Ġvorgenommen":8787,"Ġoccasion":8788,"Ġoms":8789,"Ġisted":8790,"Ġretail":8791,"Ġdeser":8792,"Ġinspir":8793,"Ġverantwortungs":8794,"Ġsmart":8795,"Ġberge":8796,"Ġkleiner":8797,"Ġtheater":8798,"Ġbetriebe":8799,"Ġchosen":8800,"ĠflÃ¼ge":8801,"02":8802,"Ġpreisen":8803,"Ġblut":8804,"Ġdivide":8805,"Ġblood":8806,"Ġreve":8807,"Ġmultiple":8808,"ĠsorgfÃ¤lt":8809,"ch":8810,"Ġdecre":8811,"Ġmassen":8812,"Ġmengen":8813,"Ġhoffnung":8814,"Ġdiction":8815,"Ġypt":8816,"Ġkette":8817,"Ġinterpretation":8818,"Ġbotschaft":8819,"Ġucht":8820,"Ġchap":8821,"Ġhour":8822,"Ġzellen":8823,"Ġreichende":8824,"Ġifications":8825,"Ġilla":8826,"Ġsecon":8827,"Ġwichtiges":8828,"Ġangriff":8829,"Ġcession":8830,"Ġfourth":8831,"Ġstood":8832,"Ġkurzem":8833,"Ġkonkreten":8834,"Ġeffekt":8835,"Ġdele":8836,"Ġbach":8837,"Ġmodule":8838,"Ġglobalisation":8839,"Ġoffenen":8840,"Ġpraktiken":8841,"Ġquot":8842,"Ġstocks":8843,"ĠÃ¤nden":8844,"Ġave":8845,"ĠÃ¼nd":8846,"Ġmaterialien":8847,"ĠbeglÃ¼ck":8848,"Ġacquisition":8849,"Ġasking":8850,"Ġbing":8851,"Ġspanischen":8852,"Ġbewegen":8853,"Ġmlich":8854,"Ġrahmens":8855,"Ġpolizei":8856,"Ġanony":8857,"Ġfaces":8858,"Ġkompetenz":8859,"Ġiking":8860,"Ġspricht":8861,"Ġentstanden":8862,"Ġfuhren":8863,"Ġkonsolidi":8864,"Ġwodurch":8865,"Ġgarantieren":8866,"Ġcoffee":8867,"Ġstory":8868,"Ġmacro":8869,"Ġheating":8870,"Ġnunmehr":8871,"Ġabsen":8872,"Ġexamine":8873,"Ġheavy":8874,"Ġzwang":8875,"ĠentwicklungslÃ¤nder":8876,"Ġchamp":8877,"Ġconsequently":8878,"Ġsonn":8879,"www":8880,"ĠreprÃ¤sent":8881,"Ġanerkannt":8882,"Ġkabel":8883,"Ġdelivered":8884,"ĠansprÃ¼":8885,"Ġbez":8886,"Ġindones":8887,"Ġverbrechen":8888,"Ġsurface":8889,"Ġtobac":8890,"Ġnoon":8891,"Ġzwecke":8892,"Ġbereitgestellt":8893,"Ġfinland":8894,"ĠkÃ¼nfte":8895,"Ġspeich":8896,"Ġdiskussionen":8897,"Ġorgungs":8898,"Ġignor":8899,"Ġprimarily":8900,"im":8901,"tra":8902,"Ġrounded":8903,"Ġangezeigt":8904,"Ġtaxes":8905,"programm":8906,"Ġattacks":8907,"Ġ250":8908,"Ġeinheitlichen":8909,"eib":8910,"Ġkg":8911,"Ġbilanz":8912,"Ġistisch":8913,"Ġbatter":8914,"Ġbetreu":8915,"Ġfaced":8916,"ĠkÃ¤ufer":8917,"Ġliby":8918,"Ġiques":8919,"Ġlieferung":8920,"ĠschÃ¤d":8921,"Ġvorzulegen":8922,"Ġdecades":8923,"03":8924,"Ġcompetent":8925,"per":8926,"Ġidentity":8927,"Ġillustr":8928,"Ġgebunden":8929,"Ġweite":8930,"rel":8931,"Ġflight":8932,"ĠumstÃ¤nden":8933,"Ġenergies":8934,"Ġcertainty":8935,"Ġehemaligen":8936,"Ġimp":8937,"Ġahr":8938,"Ġgau":8939,"Ġulted":8940,"Ġbereitstellung":8941,"Ġamongst":8942,"ĠzusÃ¤tzlichen":8943,"Ġsuites":8944,"Ġdublin":8945,"Ġcoal":8946,"Ġproduktiv":8947,"Ġenergien":8948,"Ġmonop":8949,"ac":8950,"Ġslowen":8951,"Ġbestimmter":8952,"Ġentscheidend":8953,"Ġagrarpolitik":8954,"Ġgegenteil":8955,"Ġtai":8956,"Ġfenster":8957,"Ġchi":8958,"ĠmÃ¤nner":8959,"Ġtickets":8960,"Ġzimmern":8961,"Ġrightly":8962,"Ġlegte":8963,"Ġida":8964,"Ġefs":8965,"Ġsloven":8966,"unter":8967,"Ġaufsichts":8968,"Ġriv":8969,"Ġbildet":8970,"Ġonto":8971,"Ġbislang":8972,"Ġquelle":8973,"Ġrelatively":8974,"Ġtobacco":8975,"Ġphilip":8976,"Ġsetzungs":8977,"Ġhandlungs":8978,"ĠkapazitÃ¤ten":8979,"Ġseeing":8980,"Ġdiv":8981,"Ġbereitschaft":8982,"ĠkohÃ¤sion":8983,"Ġprotecting":8984,"Ġlooks":8985,"Ġsli":8986,"Ġieht":8987,"Ġlasten":8988,"Ġikas":8989,"Ġtheit":8990,"Ġverzeich":8991,"Ġservers":8992,"Ġcauses":8993,"Ġlehnt":8994,"Ġoutput":8995,"Ġangs":8996,"Ġieties":8997,"Ġkooperation":8998,"Ġmau":8999,"Ġmental":9000,"Ġauthent":9001,"Ġlength":9002,"Ġatever":9003,"Ġmys":9004,"Ġcomplement":9005,"ĠbÃ¼rokrat":9006,"Ġmother":9007,"Ġeland":9008,"01":9009,"Ġumn":9010,"Ġrussischen":9011,"Ġbann":9012,"Ġingt":9013,"ĠgrÃ¼ndung":9014,"Ġabwe":9015,"Ġexpansion":9016,"Ġkostenlos":9017,"Ġgleichgewicht":9018,"Ġbegonnen":9019,"ĠfÃ¤higkeiten":9020,"Ġfash":9021,"Ġjack":9022,"Ġintelligen":9023,"ĠentschlieÃŁungsantrag":9024,"Ġangeht":9025,"Ġschwed":9026,"Ġwhatever":9027,"ĠzurÃ¼ckzu":9028,"Ġsac":9029,"Ġredner":9030,"Ġ88":9031,"Ġcompr":9032,"Ġmillen":9033,"Ġtheat":9034,"Ġsmaller":9035,"Ġoptimal":9036,"Ġtackle":9037,"2009":9038,"Ġvertragsverletz":9039,"Ġwelfare":9040,"Ġpraktisch":9041,"ĠmÃ¤cht":9042,"Ġstrafe":9043,"ĠbestÃ¤nde":9044,"Ġklaren":9045,"Ġrational":9046,"Ġeure":9047,"Ġemployed":9048,"Ġrequirement":9049,"Ġswedish":9050,"Ġgnissen":9051,"Ġee":9052,"Ġinstalled":9053,"Ġdomain":9054,"Ġkehren":9055,"Ġsolange":9056,"proje":9057,"Ġecho":9058,"Ġseitens":9059,"Ġsanta":9060,"Ġdistin":9061,"Ġscen":9062,"Ġweiger":9063,"Ġbezieht":9064,"Ġtip":9065,"Ġanbieten":9066,"ĠbevÃ¶lker":9067,"Ġgrammat":9068,"16":9069,"Ġhielt":9070,"Ġcapable":9071,"Ġrou":9072,"Ġvienna":9073,"Ġspeziellen":9074,"Ġthes":9075,"Ġimposed":9076,"Ġerzeugung":9077,"Ġluxury":9078,"Ġbaltic":9079,"Ġinclusion":9080,"Ġinvited":9081,"Ġmarke":9082,"Ġparks":9083,"Ġgovernmental":9084,"Ġigem":9085,"Ġshares":9086,"Ġcharta":9087,"Ġversions":9088,"Ġdisaster":9089,"Ġabling":9090,"Ġtotally":9091,"ĠÃ¤nd":9092,"Ġgerichts":9093,"Ġerging":9094,"Ġdelic":9095,"Ġjahrhunderts":9096,"Ġkans":9097,"Ġanen":9098,"Ġeinerseits":9099,"Ġsustainability":9100,"Ġgte":9101,"Ġleon":9102,"Ġzentralen":9103,"Ġickt":9104,"ĠauÃŁerord":9105,"richt":9106,"Ġadi":9107,"Ġmine":9108,"Ġgrundlegenden":9109,"Ġbesitzt":9110,"ĠiÃŁen":9111,"Ġ86":9112,"smo":9113,"Ġbewerber":9114,"Ġbestimmung":9115,"Ġreservation":9116,"Ġbeginnt":9117,"Ġoral":9118,"Ġkreis":9119,"Ġsammel":9120,"Ġdetermine":9121,"Ġyoull":9122,"Ġkooperations":9123,"Ġlassung":9124,"Ġfacility":9125,"ĠdurchzufÃ¼hren":9126,"Ġ1989":9127,"Ġfotos":9128,"Ġgenauso":9129,"ĠgeschÃ¤ftsordnung":9130,"Ġhimself":9131,"Ġdisable":9132,"Ġappell":9133,"ĠÃ¼bernommen":9134,"Ġberatungen":9135,"Ġhauptstadt":9136,"Ġreiz":9137,"Ġdivision":9138,"Ġanstieg":9139,"Ġfather":9140,"Ġua":9141,"Ġzentren":9142,"Ġfashion":9143,"Ġbezeichnet":9144,"14":9145,"Ġdemokraten":9146,"ĠrealitÃ¤t":9147,"Ġproviders":9148,"Ġanhand":9149,"Ġdavid":9150,"Ġdiagno":9151,"Ġmeat":9152,"Ġposite":9153,"Ġstehende":9154,"Ġbarriers":9155,"Ġario":9156,"Ġveran":9157,"Ġtesten":9158,"17":9159,"Ġdirektor":9160,"Ġquoten":9161,"strategie":9162,"Ġzusch":9163,"Ġhob":9164,"Ġlicense":9165,"Ġdrawing":9166,"Ġender":9167,"Ġancient":9168,"ĠgrÃ¼nen":9169,"Ġscher":9170,"Ġgemeinschaftlichen":9171,"me":9172,"Ġminer":9173,"Ġliefern":9174,"Ġipul":9175,"ĠzÃ¼ge":9176,"Ġito":9177,"Ġclubs":9178,"Ġacceler":9179,"Ġexklus":9180,"Ġgearbeitet":9181,"Ġausgleich":9182,"Ġkommer":9183,"Ġanwendungs":9184,"Ġdevice":9185,"Ġslight":9186,"Ġmontene":9187,"ĠfÃ¼hrende":9188,"Ġifiziert":9189,"Ġusual":9190,"Ġeinstellung":9191,"Ġyn":9192,"Ġcold":9193,"Ġstandar":9194,"Ġorgane":9195,"Ġji":9196,"Ġtrifft":9197,"Ġfinde":9198,"Ġincreases":9199,"Ġmunic":9200,"Ġwrite":9201,"Ġauftreten":9202,"Ġequally":9203,"Ġmetall":9204,"Ġlistings":9205,"ĠdrÃ¼":9206,"Ġconsists":9207,"Ġwerbung":9208,"Ġonien":9209,"Ġartists":9210,"Ġusb":9211,"ĠarbeitsplÃ¤tzen":9212,"Ġgenere":9213,"Ġkulturelle":9214,"Ġresolved":9215,"Ġstations":9216,"ĠÃ¤cht":9217,"Ġprocessed":9218,"Ġarbeitsplatz":9219,"Ġstrategischen":9220,"Ġschiffe":9221,"Ġunterschiedlich":9222,"Ġentspannen":9223,"Ġaufzunehmen":9224,"Ġschemes":9225,"Ġterung":9226,"Ġrechtsstaat":9227,"Ġtreaties":9228,"ĠrÃ¼stung":9229,"Ġbucht":9230,"ĠuniversitÃ¤t":9231,"Ġtreated":9232,"Ġwirksame":9233,"Ġentrum":9234,"Ġprize":9235,"ĠbeschlÃ¼sse":9236,"Ġsis":9237,"Ġitts":9238,"Ġvolume":9239,"Ġhamburg":9240,"Ġmikro":9241,"Ġklasse":9242,"Ġleads":9243,"Ġphotos":9244,"Ġcf":9245,"Ġkete":9246,"Ġhandling":9247,"Ġshower":9248,"Ġfighting":9249,"Ġdetaill":9250,"Ġlap":9251,"Ġexpectations":9252,"Ġbehandeln":9253,"Ġeingegangen":9254,"Ġolder":9255,"ĠkrÃ¤ften":9256,"Ġarzneimittel":9257,"Ġmerely":9258,"Ġgewinn":9259,"Ġgeschieht":9260,"Ġstron":9261,"Ġcharges":9262,"Ġclassic":9263,"ĠverfÃ¼gbarkeit":9264,"Ġinning":9265,"Ġkurzfrist":9266,"bo":9267,"Ġchancen":9268,"Ġtrafficking":9269,"Ġgegensatz":9270,"Ġzugriff":9271,"Ġvertretern":9272,"Ġforme":9273,"ĠsÃ¤":9274,"ĠsehenswÃ¼rd":9275,"Ġbroadcast":9276,"Ġerscheinen":9277,"Ġvast":9278,"Ġzuerst":9279,"Ġfreit":9280,"Ġdatenbank":9281,"Ġzieht":9282,"Ġcongress":9283,"Ġveranstaltung":9284,"Ġyugosla":9285,"Ġvieler":9286,"Ġrecognise":9287,"Ã¼":9288,"Ġmetal":9289,"Ġencouraging":9290,"Ġsinnvoll":9291,"Ġconstantly":9292,"Ġvulnerable":9293,"Ġpolish":9294,"Ġverwirklichung":9295,"Ġmeist":9296,"Ġfinding":9297,"Ġellos":9298,"Ġanstatt":9299,"Ġiner":9300,"ĠrÃ¤umen":9301,"Ġaged":9302,"Ġprest":9303,"Ġterrorist":9304,"Ġsettlement":9305,"Ġbracht":9306,"ĠtÃ¤u":9307,"Ġrul":9308,"Ġiegen":9309,"Ġbetten":9310,"Ġwirtschaftlich":9311,"Ġlibrary":9312,"Ġtabel":9313,"Ġkriegs":9314,"Ġgio":9315,"Ġaming":9316,"Ġhase":9317,"Ġeingeleitet":9318,"Ġdiskutiert":9319,"ster":9320,"Ġsured":9321,"Ġhong":9322,"Ġmos":9323,"Ġflat":9324,"05":9325,"Ġdealt":9326,"Ġguter":9327,"Ġbrazil":9328,"ĠbeschrÃ¤nkungen":9329,"Ġuro":9330,"Ġimmigr":9331,"ĠlÃ¤ÃŁ":9332,"ĠÃ¶ffnen":9333,"Ġtedly":9334,"Ġholidays":9335,"Ġeras":9336,"Ġentdecken":9337,"Ġdestroy":9338,"ĠpersÃ¶nliche":9339,"Ġchris":9340,"Ġupdates":9341,"Ġmodernisierung":9342,"2002":9343,"Ġdestru":9344,"Ġswitch":9345,"Ġtabak":9346,"Ġprotest":9347,"ĠtÃ¶":9348,"Ġthom":9349,"ĠÃ¤ten":9350,"Ġresolve":9351,"Ġlithu":9352,"Ġdialogs":9353,"Ġlokale":9354,"ĠerÃ¶ffnet":9355,"Ġlargely":9356,"Ġwestlichen":9357,"Ġtau":9358,"Ġerei":9359,"Ġcolleague":9360,"Ġempfehlen":9361,"Ġfavor":9362,"Ġchnet":9363,"Ġcovering":9364,"Ġalbum":9365,"ĠantrÃ¤gen":9366,"pt":9367,"Ġdiscussing":9368,"ĠeinschlÃ¤":9369,"Ġverhaltens":9370,"Ġglad":9371,"Ġschedu":9372,"Ġgb":9373,"Ġapparte":9374,"Ġfragt":9375,"Ġkonkurr":9376,"dis":9377,"Ġcipl":9378,"Ġsurrounding":9379,"ĠÃ¤uÃŁ":9380,"Ġemerging":9381,"Ġsibly":9382,"Ġentered":9383,"Ġmemo":9384,"Ġzweifellos":9385,"Ġnearby":9386,"ent":9387,"Ġpaint":9388,"Ġangewand":9389,"Ġupdated":9390,"Ġpublik":9391,"Ġexplain":9392,"Ġwiederum":9393,"Ġstrecken":9394,"Ġtibet":9395,"Ġrechnungshof":9396,"Ġpoliticians":9397,"Ġindicated":9398,"Ġuntersuchungen":9399,"Ġwahrung":9400,"Ġbeton":9401,"Ġfraktionen":9402,"Ġbang":9403,"Ġlatein":9404,"Ġvorange":9405,"2003":9406,"Ġbestehende":9407,"ĠstrÃ¶m":9408,"Ġbeispiele":9409,"Ġchemical":9410,"Ġengland":9411,"Ġbekannten":9412,"Ġabroad":9413,"Ġautomatic":9414,"Ġdefine":9415,"Ġactively":9416,"Ġanze":9417,"Ġverpack":9418,"Ġgleicher":9419,"Ġpiece":9420,"Ġschauen":9421,"Ġcheap":9422,"Ġwirtschaften":9423,"Ġrepeated":9424,"Ġ................":9425,"Ġnorden":9426,"Ġkombination":9427,"Ġhence":9428,"Ġinstitut":9429,"Ġgrundlegende":9430,"Ġkomponenten":9431,"Ġentertainment":9432,"Ġkonz":9433,"Ġvorgesehenen":9434,"Ġfly":9435,"ĠspÃ¼r":9436,"Ġegal":9437,"ĠkriminalitÃ¤t":9438,"ĠÃ¤gy":9439,"Ġversorgungs":9440,"Ġerlassen":9441,"Ġbesteu":9442,"Ġstieg":9443,"Ġzit":9444,"Ġverste":9445,"Ġsubsidies":9446,"Ġbeeinfl":9447,"Ġpiel":9448,"Ġuls":9449,"Ġerwartungen":9450,"40":9451,"Ġmillions":9452,"Ġperfectly":9453,"Ġinterior":9454,"Ġrating":9455,"Ġverbreitung":9456,"Ġhierbei":9457,"Ġdepending":9458,"Ġueber":9459,"Ġimplic":9460,"Ġdrittens":9461,"ĠkapazitÃ¤t":9462,"Ġultimately":9463,"Ġversehen":9464,"Ġbeaches":9465,"Ġrapidly":9466,"Ġintellectual":9467,"ĠbeschÃ¤ftigt":9468,"ĠgrundsÃ¤tzlich":9469,"Ġbeteiligen":9470,"ĠsehenswÃ¼rdigkeiten":9471,"quality":9472,"Ġae":9473,"Ġtank":9474,"smoking":9475,"Ġprofile":9476,"Ġdrop":9477,"Ġnichtraucher":9478,"Ġcontents":9479,"Ġstuff":9480,"Ġunits":9481,"Ġstunde":9482,"Ġtried":9483,"Ġfocused":9484,"Ġauditors":9485,"Ġenhanced":9486,"Ġunto":9487,"Ġfahrer":9488,"Ġhans":9489,"Ġteen":9490,"Ġdirekte":9491,"Ġvorgeschlagene":9492,"Ġhip":9493,"Ġsexual":9494,"Ġdiver":9495,"Ġjustified":9496,"Ġweshalb":9497,"Ġ98":9498,"Ġmagaz":9499,"Ġakp":9500,"Ġzentralbank":9501,"ĠgewÃ¤hlt":9502,"Ġgeor":9503,"Ġstring":9504,"Ġpositionen":9505,"Ġnachrichten":9506,"Ġsteigerung":9507,"Ġjac":9508,"ĠwÃ¶r":9509,"ĠschlieÃŁt":9510,"ĠbeschrÃ¤nkt":9511,"Ġeds":9512,"04":9513,"Ġinput":9514,"Ġaids":9515,"Ġdelegations":9516,"Ġinseln":9517,"so":9518,"Ġjord":9519,"Ġliothe":9520,"ĠkÃ¼sten":9521,"Ġzwungen":9522,"Ġzugangs":9523,"mittel":9524,"Ġcorruption":9525,"Ġbezo":9526,"Ġaktien":9527,"Ġentwickelten":9528,"wide":9529,"Ġweisung":9530,"time":9531,"Ġtransactions":9532,"ĠgeschÃ¤fte":9533,"ger":9534,"Ġnewspa":9535,"Ġautomobil":9536,"Ġwerfen":9537,"Ġindik":9538,"Ġzusammenarbeiten":9539,"Ġtemperatur":9540,"Ġbauern":9541,"Ġmillenn":9542,"Ġtraditionellen":9543,"Ġdeploy":9544,"Ġniger":9545,"Ġakzeptiert":9546,"Ġnitt":9547,"Ġobtained":9548,"Ġsuffering":9549,"Ġmig":9550,"Ġurge":9551,"Ġcommissioners":9552,"Ġtri":9553,"Ġlegungen":9554,"techn":9555,"Ġstronger":9556,"Ġwendige":9557,"Ġstandort":9558,"Ġmeters":9559,"ĠÃ¼g":9560,"ĠverzÃ¶ger":9561,"Ġgegenstand":9562,"Ġesty":9563,"Ġunterzeichnet":9564,"Ġweiten":9565,"Ġmanaging":9566,"Ġstaates":9567,"Ġexplan":9568,"Ġannehm":9569,"Ġafford":9570,"ĠstÃ¤dten":9571,"Ġspaces":9572,"Ġktro":9573,"Ġverlieren":9574,"ĠeuropÃ¤isches":9575,"24":9576,"Ġkw":9577,"Ġerleb":9578,"Ġunterst":9579,"06":9580,"Ġpersonally":9581,"Ġhealthy":9582,"Ġundertaken":9583,"Ġnine":9584,"Ġdramat":9585,"Ġcorner":9586,"Ġgewissen":9587,"Ġiente":9588,"Ġtrie":9589,"Ġasi":9590,"Ġverlangt":9591,"Ġsurrounded":9592,"Ġjudgment":9593,"Ġmern":9594,"Ġpour":9595,"Ġbots":9596,"Ġschwierigen":9597,"Ġpassenger":9598,"Ġconnect":9599,"Ġverwand":9600,"Ġuese":9601,"Ġjohann":9602,"Ġvoluntary":9603,"Ġrecommended":9604,"Ġfunktions":9605,"Ġengag":9606,"level":9607,"Ġexceed":9608,"Ġideale":9609,"Ġemark":9610,"Ġsevere":9611,"Ġvirtual":9612,"Ġcontemporary":9613,"Ġnukle":9614,"Ġinterne":9615,"Ġmaintaining":9616,"Ġwirtschaftlicher":9617,"Ġpm":9618,"Ġsold":9619,"Ġassign":9620,"Ġbalkans":9621,"Ġalco":9622,"Ġszen":9623,"Ġholm":9624,"Ġlatter":9625,"Ġkill":9626,"Ġgraphic":9627,"Ġteils":9628,"Ġreported":9629,"Ġreffen":9630,"Ġprocure":9631,"su":9632,"Ġlays":9633,"Ġhaut":9634,"related":9635,"Ġstif":9636,"Ġgather":9637,"Ġfinnland":9638,"Ġcontacts":9639,"Ġpaul":9640,"Ġbergen":9641,"Ġspeicher":9642,"ĠbekÃ¤mpfen":9643,"Ġnament":9644,"Ġfaction":9645,"Ġcomplain":9646,"Ġdeiner":9647,"Ġ120":9648,"Ġaufwand":9649,"ĠgewÃ¤hrleistung":9650,"Ġombudsman":9651,"Ġclos":9652,"Ġregret":9653,"Ġcontrolled":9654,"Ġcale":9655,"Ġgie":9656,"Ġposing":9657,"Ġegypt":9658,"ĠergÃ¤nz":9659,"Ġestimated":9660,"Ġbarn":9661,"Ġverletzungen":9662,"Ġschlecht":9663,"Ġgallery":9664,"Ġstes":9665,"Ġkeines":9666,"Ġsomeone":9667,"Ġalters":9668,"Ġregulierung":9669,"Ġerlauben":9670,"Ġportfolio":9671,"Ġdefe":9672,"Ġbeseitigung":9673,"Ġifies":9674,"Ġbasiert":9675,"Ġconducted":9676,"Ġlangsam":9677,"Ġfreunde":9678,"Ġrol":9679,"Ġdiam":9680,"Ġ96":9681,"Ġkonsum":9682,"Ġdistort":9683,"Ġsauber":9684,"Ġmung":9685,"Ġhop":9686,"Ġeva":9687,"Ġdefault":9688,"Ġtruth":9689,"Ġconstitute":9690,"Ġgone":9691,"Ġdischarge":9692,"Ġdenmark":9693,"Ġbattle":9694,"Ġaccompan":9695,"Ġspeakers":9696,"Ġklau":9697,"Ġcopen":9698,"Ġmenschlichen":9699,"Ġremote":9700,"Ġexists":9701,"Ġdiensten":9702,"Ġvaluable":9703,"500":9704,"Ġrunde":9705,"Ġbinnenmarktes":9706,"Ġeltern":9707,"Ġconvergence":9708,"Ġniedrig":9709,"ĠlÃ¼":9710,"Ġcomplic":9711,"Ġorganizations":9712,"Ġobama":9713,"Ã¼ber":9714,"Ġshape":9715,"Ġpursue":9716,"Ġausgesetzt":9717,"Ġcouple":9718,"Ġkture":9719,"Ġportuguese":9720,"Ġzard":9721,"Ġ41":9722,"ĠratsprÃ¤sident":9723,"Ġcopenhagen":9724,"Ġbefugnisse":9725,"Ġmassage":9726,"Ġtarif":9727,"ĠhÃ¶chste":9728,"Ġabbau":9729,"ĠnatÃ¼rlichen":9730,"Ġwissenschaftliche":9731,"ĠÃŁte":9732,"ĠauÃŁergewÃ¶hn":9733,"Ġaud":9734,"Ġfrid":9735,"Ġhaftung":9736,"ĠÃ¼berzeugen":9737,"ĠbetrÃ¤gt":9738,"Ġenglisch":9739,"Ġunterkunft":9740,"Ġwirel":9741,"ĠfaÃŁt":9742,"Ġsurvey":9743,"Ġcio":9744,"Ġrelevan":9745,"Ġparameter":9746,"Ġpremium":9747,"Ġplate":9748,"Ġlandscape":9749,"Ġkernel":9750,"sterne":9751,"ĠbewÃ¤hr":9752,"we":9753,"Ġstab":9754,"ĠgÃ¤sten":9755,"Ġexceptional":9756,"ĠgenÃ¼gen":9757,"Ġ92":9758,"Ġstick":9759,"Ġkonto":9760,"Ġbuchen":9761,"Ġpackaging":9762,"Ġpanel":9763,"nl":9764,"Ġbeschrieben":9765,"Ġarchitektur":9766,"Ġfreude":9767,"Ġthorough":9768,"Ġdliche":9769,"Ġretain":9770,"Ġneun":9771,"Ġkonfront":9772,"Ġwireless":9773,"Ġzucker":9774,"Ġnotified":9775,"Ġzonen":9776,"Ġgehoben":9777,"Ġadow":9778,"()":9779,"Ġablen":9780,"Ġdestination":9781,"Ġkategorie":9782,"Ġcapt":9783,"Ġspot":9784,"Ġdinner":9785,"Ġnahezu":9786,"Ġ1000":9787,"Ġrelie":9788,"ĠgeÃ¶ffnet":9789,"Ġwohlstand":9790,"Ġonial":9791,"Ġsuppliers":9792,"Ġmens":9793,"Ġivalent":9794,"Ġgriffe":9795,"Ġneter":9796,"Ġwirtschaftswachstum":9797,"Ġconflicts":9798,"ĠmiÃŁ":9799,"Ġgolden":9800,"Ġnotwendige":9801,"Ġeye":9802,"Ġheber":9803,"Ġheutige":9804,"Ġstufe":9805,"Ġcontrast":9806,"Ġwertung":9807,"Ġmarkts":9808,"Ġreduzierung":9809,"Ġsupplement":9810,"Ġelig":9811,"Ġnochmals":9812,"ĠfÃ¤l":9813,"Ġdisabled":9814,"Ġius":9815,"Ġalts":9816,"Ġtrau":9817,"Ġoffices":9818,"Ġexpensive":9819,"Ġsess":9820,"Ġviewed":9821,"Ġduties":9822,"Ġletztlich":9823,"Ġverzer":9824,"Ġwerken":9825,"08":9826,"Ġforese":9827,"Ġmaintained":9828,"Ġrelaxing":9829,"Ġausstellung":9830,"Ġrin":9831,"Ġwitter":9832,"ĠkÃ¤mpfen":9833,"Ġwg":9834,"Ġots":9835,"Ġgebur":9836,"Ġerde":9837,"Ġgenz":9838,"Ġersucht":9839,"Ġfarb":9840,"Ġjava":9841,"Ġacting":9842,"Ġstadtz":9843,"Ġkong":9844,"Ġwomens":9845,"Ġpensions":9846,"ĠverstÃ¶":9847,"Ġblatt":9848,".-":9849,"Ġakteure":9850,"Ġunbe":9851,"Ġgalile":9852,"Ġvertragsverletzungsverfahren":9853,"Ġutil":9854,"Ġeinverstanden":9855,"Ġwegs":9856,"Ġturned":9857,"Ġvergabe":9858,"Ġjos":9859,"Ġresolutions":9860,"Ġoptionen":9861,"Ġcategories":9862,"Ġsr":9863,"Ġfreundliche":9864,"ĠÃ¼bergang":9865,"Ġforthcoming":9866,"ĠzustÃ¤ndigkeit":9867,"Ġmall":9868,"Ġlohn":9869,"Ġdecisive":9870,"ĠniederlÃ¤nd":9871,"kommissar":9872,"Ġerinnert":9873,"ĠgewÃ¤hl":9874,"ĠgerÃ¼":9875,"Ġimpul":9876,"Ġmanche":9877,"Ġmaastr":9878,"Ġconsulting":9879,"la":9880,"ĠsÃ¼den":9881,"Ġtreiben":9882,"Ġflows":9883,"ĠfrÃ¼heren":9884,"ĠklÃ¤rung":9885,"Ġication":9886,"Ġapplying":9887,"Ġpakt":9888,"Ġadopting":9889,"Ġales":9890,"Ġmotive":9891,"Ġselten":9892,"Ġresource":9893,"Ġsubsidiarity":9894,"Ġstakeholders":9895,"Ġregularly":9896,"Ġcanada":9897,"Ġprocurement":9898,"Ġvereinfachung":9899,"Ġarbeiter":9900,"Ġdebates":9901,"Ġfutter":9902,"Ġpreparing":9903,"Ġ77":9904,"Ġpick":9905,"Ġchief":9906,"Ġderart":9907,"Ġgeboten":9908,"ĠÃ¤rkt":9909,"Ġadmit":9910,"Ġsteuerung":9911,"Ġbreach":9912,"Ġaux":9913,"Ġtod":9914,"Ġmissionen":9915,"Ġdiplomat":9916,"Ġsavings":9917,"Ġpod":9918,"Ġbench":9919,"Ġfabr":9920,"Ġolaf":9921,"Ġstatut":9922,"2008":9923,"ĠanschlieÃŁend":9924,"Ġattractions":9925,"Ġhein":9926,"Ġinquir":9927,"Ġimpose":9928,"Ġgate":9929,"Ġgespe":9930,"Ġcourage":9931,"ĠtatsÃ¤ch":9932,"Ġkamera":9933,"Ġsugar":9934,"Ġexperiences":9935,"Ġiche":9936,"Ġedge":9937,"Ġportugies":9938,"Ġzugrunde":9939,"Ġallocated":9940,"Ġlord":9941,"Ġkontinuier":9942,"ĠlÃ¤sslich":9943,"Ġfestgelegten":9944,"Ġeinbezogen":9945,"Ġrare":9946,"Ġhelps":9947,"Ġberuht":9948,"Ġrejected":9949,"Ġactors":9950,"Ġzipl":9951,"ĠabilitÃ¤t":9952,"Ġmontenegro":9953,"Ġzins":9954,"Ġclim":9955,"Ġkinds":9956,"Ġobli":9957,"Ġ1980":9958,"Ġcollaboration":9959,"Ġprogramming":9960,"Ġsummar":9961,"Ġserie":9962,"Ġnein":9963,"Ġvous":9964,"Ġsolve":9965,"Ġniture":9966,"Ġmakro":9967,"Ġbinden":9968,"Ġmultim":9969,"Ġwirklichen":9970,"ĠhÃ¤ndler":9971,"Ġtum":9972,"Ġkopen":9973,"Ġamaz":9974,"Ġfue":9975,"Ġdiverse":9976,"Ġkos":9977,"Ġeinkaufs":9978,"Ġjudge":9979,"Ġtwent":9980,"Ġfalsch":9981,"Ġdans":9982,"Ġmultination":9983,"Ġgewonnen":9984,"Ġsichere":9985,"Ġbehaviour":9986,"Ġgesicht":9987,"Ġkreuz":9988,"Ġsurv":9989,"Ġbike":9990,"Ġemphasise":9991,"Ġheat":9992,"Ġfoster":9993,"tv":9994,"Ġziellen":9995,"Ġcn":9996,"Ġarische":9997,"ĠerfÃ¼llung":9998,"Ġmilk":9999,"ĠverÃ¶ffentlichung":10000,"Ġthilfe":10001,"Ġdefend":10002,"ĠdurchfÃ¼hren":10003,"Ġfreedoms":10004,"Ġtours":10005,"Ġzusagen":10006,"Ġwiegen":10007,"Ġgten":10008,"Ġgige":10009,"Ġannehmen":10010,"Ġpleasure":10011,"Ġentspann":10012,"Ġprofil":10013,"Ġintend":10014,"Ġaccompanied":10015,"Ġembar":10016,"Ġ93":10017,"Ġanfragen":10018,"Ġentscheidende":10019,"ĠÃ¶ffnung":10020,"Ġido":10021,"Ġobstacles":10022,"Ġschefs":10023,"Ġmittleren":10024,"staaten":10025,"ĠverknÃ¼":10026,"Ġacp":10027,"Ġstudenten":10028,"Ġsichergestellt":10029,"Ġdepends":10030,"lo":10031,"Ġerzeuger":10032,"Ġattitude":10033,"ĠbewÃ¤ltigung":10034,"ĠmenÃ¼":10035,"par":10036,"ĠbekrÃ¤ftigt":10037,"Ġgle":10038,"Ġcant":10039,"Ġpipe":10040,"Ġtransmission":10041,"352":10042,"Ġangesehen":10043,"ĠdrÃ¼cken":10044,"Ġbeauftragten":10045,"Ġwashington":10046,"ĠbevÃ¶lkerungs":10047,"Ġdium":10048,"ĠÃ¼bersch":10049,"Ġteilungen":10050,"Ġherrscht":10051,"Ġwirtschaftspolitik":10052,"Ġhelped":10053,"Ġschnelle":10054,"Ġ76":10055,"Ġprop":10056,"Ġcamping":10057,"ĠausfÃ¼hrung":10058,"ĠunverzÃ¼glich":10059,"ĠverschÃ¤r":10060,"Ġkonsens":10061,"Ġbirth":10062,"Ġgelder":10063,"Ġelektro":10064,"Ġinstallations":10065,"Ġkontinent":10066,"Ġreplace":10067,"Ġinsof":10068,"Ġstrategische":10069,"Ġelektronischen":10070,"Ġerholung":10071,"Ġweitgehend":10072,"her":10073,"Ġnoise":10074,"Ġsupplies":10075,"ĠÃ¼bereinstimmung":10076,"Ġabsence":10077,"ĠfÃ¼hlen":10078,"Ġabschnitt":10079,"Ġrac":10080,"Ġspor":10081,"Ġverbraucherschutz":10082,"Ġhur":10083,"Ġbenachteil":10084,"Ġausgabe":10085,"Ġmelden":10086,"Ġzeption":10087,"Ġqualifik":10088,"ĠflÃ¼chtl":10089,"Ġsensib":10090,"Ġfans":10091,"Ġfee":10092,"ĠÃ¼berzeugung":10093,"Ġdemonstrate":10094,"abkommen":10095,"Ġcable":10096,"ĠgetrÃ¤n":10097,"Ġeinstimm":10098,"Ġimmun":10099,"ĠgewÃ¼nsch":10100,"Ġeut":10101,"Ġhypo":10102,"Ġhp":10103,"Ġoutdoor":10104,"Ġeis":10105,"Ġwerks":10106,"Ġchannel":10107,"Ġkollege":10108,"Ġrely":10109,"ĠflÃ¼chtlinge":10110,"ĠzÃ¤hl":10111,"Ġusal":10112,"Ġtariff":10113,"Ġnegotiating":10114,"Ġnas":10115,"Ġleite":10116,"ĠerhÃ¤ltlich":10117,"Ġunes":10118,"Ġkapitel":10119,"Ġregulierungs":10120,"ĠhÃ¶heren":10121,"Ġchinesischen":10122,"Ġgeschmack":10123,"Ġstarten":10124,"Ġcoordinated":10125,"Ġordnungen":10126,"Ġrental":10127,"Ġgf":10128,"Ġvn":10129,"Ġami":10130,"Ġrie":10131,"Ġym":10132,"Ġausarbeitung":10133,"Ġloans":10134,"Ġenthus":10135,"Ġenergieeffizienz":10136,"Ġreserves":10137,"Ġerweitert":10138,"lin":10139,"Ġoce":10140,"Ġkonver":10141,"Ġausgerichtet":10142,"Ġleisure":10143,"Ġbemerkungen":10144,"Ġexce":10145,"Ġnewly":10146,"Ġskin":10147,"Ġdefizit":10148,"ĠdÃ¤m":10149,"Ġunfair":10150,"Ġintergovernmental":10151,"Ġincident":10152,"Ġsozialer":10153,"Ġveter":10154,"Ġstrug":10155,"Ġdiscipl":10156,"Ġelektronische":10157,"Ġupper":10158,"Ġvessels":10159,"ĠnachdrÃ¼cklich":10160,"Ġverbundenen":10161,"Ġrecycl":10162,"Ġett":10163,"Ġconsidering":10164,"Ġruhigen":10165,"Ġiced":10166,"Ġkonzer":10167,"Ġharmonisation":10168,"Ġcertific":10169,"ĠstoÃŁen":10170,"Ġinvolves":10171,"Ġcreates":10172,"ĠbegÃ¼nst":10173,"Ġerhaltung":10174,"Ġtrad":10175,"Ġmund":10176,"Ġurheber":10177,"Ġkamen":10178,"Ġsap":10179,"Ġobjects":10180,"Ġativer":10181,"Ġechten":10182,"Ġbegann":10183,"Ġhistorische":10184,"Ġeducational":10185,"Ġmodelle":10186,"Ġaktiven":10187,"Ġillegalen":10188,"Ġdge":10189,"ĠhumanitÃ¤ren":10190,"Ġperiode":10191,"Ġreds":10192,"Ġicon":10193,"Ġ--------":10194,"mill":10195,"Ġmelt":10196,"ĠausfÃ¼hrungen":10197,"ĠursprÃ¼nglichen":10198,"Ġria":10199,"Ġigkeits":10200,"Ġbrenn":10201,"Ġpattern":10202,"Ġbestimmen":10203,"Ġvorsitzes":10204,"Ġadjustment":10205,"Ġbegeg":10206,"Ġbou":10207,"Ġ56":10208,"Ġpg":10209,"Ġchat":10210,"Ġsaison":10211,"new":10212,"Ġwirksamkeit":10213,"Ġkonsultation":10214,"Ġpse":10215,"Ġexclusively":10216,"Ġwarr":10217,"ĠlÃ¤ndliche":10218,"Ġrespected":10219,"ĠÃ¼bertragung":10220,"Ġopposite":10221,"Ġeigenschaften":10222,"Ġalko":10223,"Ġgeboren":10224,"Ġwiederaufbau":10225,"Ġherzego":10226,"Ġouth":10227,"Ġknows":10228,"Ġaufnehmen":10229,"Ġkeys":10230,"Ġsenkung":10231,"Ġanwes":10232,"Ġausgeschlossen":10233,"Ġij":10234,"Ġwinner":10235,"ĠÃ¤uÃŁern":10236,"Ġprofessor":10237,"Ġbegrenzt":10238,"Ġminority":10239,"Ġeinheitliche":10240,"Ġinterim":10241,"Ġltd":10242,"Ġgalileo":10243,"Ġrab":10244,"ĠbemÃ¼ht":10245,"Ġ01":10246,"Ġfreiz":10247,"Ġaltstadt":10248,"Ġhilft":10249,"Ġgon":10250,"Ġcatal":10251,"Ġliegenden":10252,"Ġdt":10253,"Ġumgeben":10254,"Ġaufen":10255,"Ġmysql":10256,"Ġgrundlagen":10257,"ĠverÃ¤ndern":10258,"Ġopposed":10259,"Ġdrivers":10260,"Ġconnections":10261,"Ġleaving":10262,"Ġbibliothe":10263,"Ġvest":10264,"Ġspitzen":10265,"Ġsyner":10266,"Ġproposing":10267,"Ġwear":10268,"ĠberÃ¼hmten":10269,"Ġville":10270,"Ġanhalten":10271,"Ġsow":10272,"Ġwahrheit":10273,"Ġneuesten":10274,"Ġprosperity":10275,"Ġtaten":10276,"Ġsight":10277,"Ġproductive":10278,"Ġfacts":10279,"Ġcharacteristics":10280,"Ġlangfristig":10281,"Ġingu":10282,"Ġeingehalten":10283,"grup":10284,"Ġfaster":10285,"Ġvoranzu":10286,"Ġfehlen":10287,"Ġschweren":10288,"Ġtausende":10289,"Ġtochter":10290,"Ġstraight":10291,"Ġurlau":10292,"Ġpanoram":10293,"Ġbureauc":10294,"Ġkampagne":10295,"Ġbesides":10296,"Ġintends":10297,"Ġanswers":10298,"Ġfleet":10299,"Ġbeigetragen":10300,"ĠanschlieÃŁen":10301,"Ġworse":10302,"Ġbedauer":10303,"Ġruns":10304,"Ġprivile":10305,"Ġproductivity":10306,"Ġfilms":10307,"Ġentscheidender":10308,"Ġhousing":10309,"Ġjes":10310,"tr":10311,"Ġcookies":10312,"Ġnavigation":10313,"Ġula":10314,"Ġstellungs":10315,"Ġdoha":10316,"Ġbren":10317,"Ġsubvention":10318,"Ġarts":10319,"Ġ!!":10320,"Ġnotably":10321,"Ġplattform":10322,"Ġparents":10323,"Ġzulassen":10324,"Ġrev":10325,"ĠursprÃ¼nglich":10326,"Ġverursacht":10327,"Ġregierungskonferenz":10328,"Ġbegeister":10329,"Ġplanet":10330,"Ġquart":10331,"ĠfÃ¤llig":10332,"Ġverschiedener":10333,"Ġstrukture":10334,"Ġmedi":10335,"ĠausmaÃŁ":10336,"Ġjavas":10337,"Ġfeeling":10338,"Ġdispu":10339,"Ġalger":10340,"Ġbalcon":10341,"Ġzess":10342,"Ġstan":10343,"Ġbb":10344,"Ġbelgian":10345,"Ġerfolgreiche":10346,"art":10347,"Ġfurnished":10348,"Ġverschmutzung":10349,"Ġseg":10350,"Ġici":10351,"Ġsouver":10352,"Ġgefangen":10353,"Ġtelecommunications":10354,"Ġema":10355,"Ġreporting":10356,"Ġjose":10357,"Ġfeuer":10358,"Ġinser":10359,"Ġided":10360,"Ġdry":10361,"Ġantly":10362,"Ġovercome":10363,"Ġangest":10364,"Ġstars":10365,"ĠfÃ¤higen":10366,"Ġitar":10367,"ĠunabhÃ¤ngigen":10368,"Ġbaum":10369,"Ġpad":10370,"Ġalo":10371,"ĠschlÃ¼sse":10372,"ĠordnungsgemÃ¤ÃŁ":10373,"Ġussen":10374,"Ġreconstruction":10375,"Ġsupervision":10376,"Ġhiv":10377,"ĠwÃ¤hlt":10378,"Ġrealistic":10379,"Ġlabelling":10380,"Ġfro":10381,"Ġinvent":10382,"Ġschloss":10383,"Ġregimes":10384,"Ġstrengthened":10385,"at":10386,"Ġkab":10387,"Ġwhereas":10388,"Ġneighbourhood":10389,"100":10390,"Ġtouristen":10391,"Ġkonjun":10392,"Ġsclub":10393,"Ġpped":10394,"Ġverlauf":10395,"Ġcatalog":10396,"ĠdÃ¤nemark":10397,"ĠzÃ¶":10398,"Ġspam":10399,"ĠreligiÃ¶":10400,"Ġrotary":10401,"ĠÃ¤uÃŁert":10402,"Ġtargeted":10403,"Ġtschechischen":10404,"Ġgnu":10405,"Ġjavascript":10406,"Ġangst":10407,"Ġdary":10408,"Ġ700":10409,"Ġ66":10410,"Ġproducing":10411,"Ġremoved":10412,"Ġcompe":10413,"Ġwohnungen":10414,"Ġminorities":10415,"Ġories":10416,"Ġrechtzeit":10417,"ĠstÃ¤rke":10418,"Ġstolz":10419,"Ġhostelsclub":10420,"Ġwarn":10421,"Ġethnic":10422,"Ġfrequently":10423,"Ġsehe":10424,"Ġwave":10425,"Ġbelangt":10426,"Ġfamiliar":10427,"Ġstressed":10428,"Ġcred":10429,"Ġairbus":10430,"2005":10431,"Ġgentoo":10432,"Ġili":10433,"Ġjetz":10434,"Ġkter":10435,"Ġausgesprochen":10436,"Ġlegitimate":10437,"Ġtheo":10438,"Ġfischler":10439,"Ġkodex":10440,"Ġerasmus":10441,"Ġusd":10442,"Ġsharing":10443,"Ġmaastricht":10444,"Ġgeh":10445,"Ġigno":10446,"Ġberechtigt":10447,"Ġsters":10448,"Ġinternen":10449,"Ġfederation":10450,"Ġorganisiert":10451,"ĠÃ¤umen":10452,"Ġproud":10453,"Ġtags":10454,"Ġplenary":10455,"dep":10456,"Ġrechtsstaatlichkeit":10457,"Ġbid":10458,"Ġthermal":10459,"Ġverhindert":10460,"Ġwarning":10461,"Ġputin":10462,"Ġkatastrophe":10463,"Ġextraordin":10464,"Ġbranchen":10465,"Ġhorizontal":10466,"Ġsegment":10467,"Ġexplic":10468,"Ġpassword":10469,"Ġvertra":10470,"Ġgegebenenfalls":10471,"Ġtend":10472,"Ġinvestieren":10473,"Ġhindernisse":10474,"Ġpflege":10475,"Ġfarbe":10476,"Ġsituationen":10477,"Ġfreizeit":10478,"Ġhundreds":10479,"Ġfestzulegen":10480,"Ġstur":10481,"Ġshipping":10482,"Ġreveal":10483,"Ġbelieves":10484,"Ġweile":10485,"Ġbow":10486,"Ġsatelliten":10487,"Ġversand":10488,"Ġlect":10489,"Ġuntersucht":10490,"Ġeffiziente":10491,"Ġecd":10492,"Ġmarina":10493,"Ġschreiten":10494,"Ġinteressant":10495,"ĠanhÃ¶r":10496,"Ġiented":10497,"Ġpremierminister":10498,"Ġarbeitgeber":10499,"Ġalkohol":10500,"Ġexclusion":10501,"Ġplaza":10502,"Ġrs":10503,"Ġintegrierten":10504,"Ġniederlande":10505,"Ġschirm":10506,"ĠverÃ¤ndert":10507,"stand":10508,"Ġ900":10509,"Ġmuster":10510,"Ġsilver":10511,"Ġlangfristigen":10512,"Ġcann":10513,"Ġcompo":10514,"Ġrepeat":10515,"Ġbedrohung":10516,"Ġhappens":10517,"Ġenabling":10518,"Ġbesteuerung":10519,"Ġdeals":10520,"Ġfehlt":10521,"ĠglaubwÃ¼rd":10522,"Ġmuseums":10523,"-/":10524,"Ġdemonstrated":10525,"Ġanbelangt":10526,"Ġwirklichkeit":10527,"service":10528,"Ġperior":10529,"Ġserbia":10530,"Ġdiszipl":10531,"Ġighten":10532,"Ġlosses":10533,"Ġjordan":10534,"Ġschweizer":10535,"Ġatures":10536,"Ġmunich":10537,"Ġameras":10538,"Ġvents":10539,"ĠgepÃ¤":10540,"Ġverleihen":10541,"Ġtrop":10542,"Ġfolglich":10543,"ĠbestÃ¤tigen":10544,"Ġgeeignete":10545,"Ġarmy":10546,"ĠlieÃŁ":10547,"Ġmodul":10548,"Ġkaffe":10549,"Ġstyl":10550,"Ġjapanese":10551,"Ġborg":10552,"Ġexplore":10553,"ĠrÃ¼ckkehr":10554,"ĠgewÃ¤hren":10555,"ĠvizeprÃ¤sident":10556,"Ġeins":10557,"Ġdependent":10558,"Ġboat":10559,"Ġvereinbart":10560,"Ġspon":10561,"Ġdefiniert":10562,"Ġwohnen":10563,"Ġerhoben":10564,"Ġausrichtung":10565,"Ġierend":10566,"Ġschwarz":10567,"Ġdurchsetzung":10568,"Ġdirekten":10569,"Ġdefinite":10570,"Ġkohlen":10571,"Ġtrou":10572,"Ġeller":10573,"Ġerbe":10574,"ĠstaatsangehÃ¶r":10575,"Ġverurteilt":10576,"Ġusern":10577,"Ġpia":10578,"Ġisses":10579,"Ġprogressive":10580,"Ġparticipating":10581,"Ġkore":10582,"ĠgÃ¤nge":10583,"Ġancy":10584,"Ġverboten":10585,"Ġwing":10586,"Ġinteressiert":10587,"Ġenkt":10588,"Ġmoved":10589,"ĠfranzÃ¶sische":10590,"Ġbility":10591,"Ġcorresponding":10592,"Ġexperiment":10593,"Ġvorgaben":10594,"Ġpalette":10595,"Ġcutting":10596,"Ġicals":10597,"Ġkontakte":10598,"Ġzugelassen":10599,"Ġrechtlich":10600,"Ġwidely":10601,"Ġmitgliedschaft":10602,"Ġspektr":10603,"Ġniemals":10604,"ĠungefÃ¤hr":10605,"ĠhierfÃ¼r":10606,"Ġabgelehnt":10607,"Ġsafeguard":10608,"Ġbuda":10609,"Ġoffenbar":10610,"Ġtrage":10611,"Ġcriticism":10612,"Ġroot":10613,"Ġsiedl":10614,"richtlinie":10615,"ĠfreizÃ¼g":10616,"Ġbout":10617,"Ġaccordingly":10618,"Ġcav":10619,"Ġdesigner":10620,"Ġdeclared":10621,"Ġvietnam":10622,"Ġsmooth":10623,"Ġeinw":10624,"Ġusive":10625,"ĠÃ¼berprÃ¼ft":10626,"Ġtopic":10627,"Ġappreciate":10628,"Ġvorhandenen":10629,"polit":10630,"Ġerstellung":10631,"Ġelector":10632,"Ġkenntnisse":10633,"Ġehe":10634,"Ġschmer":10635,"Ġumgang":10636,"ĠgestÃ¤rkt":10637,"Ġabuse":10638,"Ġerstmals":10639,"ĠergÃ¤nzen":10640,"Ġrote":10641,"Ġzell":10642,"Ġroads":10643,"ĠwÃ¼nsch":10644,"Ġgestatten":10645,"Ġdiss":10646,"Ġbek":10647,"Ġfohlen":10648,"Ġhighlights":10649,"ĠenttÃ¤u":10650,"Ġklimaanlage":10651,"ĠmÃ¤nnern":10652,"Ġeration":10653,"Ġrising":10654,"km":10655,"ĠfreizÃ¼gigkeit":10656,"Ġglichkeit":10657,"Ġaband":10658,"ĠÃ¤hnliche":10659,"ĠstÃ¤rkere":10660,"Ġexamined":10661,"ĠfÃ¤ll":10662,"Ġdream":10663,"Ġemotion":10664,"Ġrez":10665,"Ġfels":10666,"Ġsorgt":10667,"Ġwicklung":10668,"Ġvertrauens":10669,"Ġgeorge":10670,"Ġapo":10671,"Ġfordere":10672,"Ġhappening":10673,"Ġhaust":10674,"Ġhebt":10675,"Ġpace":10676,"Ġbritische":10677,"Ġehemalige":10678,"Ġeinig":10679,"Ġvermie":10680,"Ġowners":10681,"ĠgefÃ¼hrten":10682,"Ġcharming":10683,"ĠjÃ¤hrige":10684,"Ġnorway":10685,"Ġuen":10686,"Ġebenen":10687,"Ġiot":10688,"Ġexcit":10689,"Ġintroducing":10690,"Ġbesitzen":10691,"Ġziemlich":10692,"ĠverfÃ¼gbaren":10693,"Ġjegliche":10694,"Ġgaza":10695,"Ġcooperate":10696,"Ġnationally":10697,"Ġjoined":10698,"Ġtransportation":10699,"Ġsettings":10700,"Ġfernseh":10701,"Ġderzeitige":10702,"Ġeigentum":10703,"Ġrecycling":10704,"Ġentlang":10705,"Ġdark":10706,"Ġkonvergenz":10707,"Ġaktuell":10708,"Ġgesetzten":10709,"Ġcatch":10710,"Ġpenalty":10711,"Ġete":10712,"Ġtransfers":10713,"Ġasset":10714,"Ġhingegen":10715,"Ġskype":10716,"Ġalumin":10717,"Ġ{{":10718,"Ġausreichen":10719,"Ġexamination":10720,"Ġenvis":10721,"Ġlegally":10722,"bahn":10723,"Ġfelder":10724,"Ġscr":10725,"Ġbisherigen":10726,"Ġbewirtschaft":10727,"Ġausgezeichnete":10728,"Ġfinger":10729,"Ġpreventing":10730,"ĠfÃ¶der":10731,"Ġsem":10732,"Ġmonte":10733,"Ġtowns":10734,"Ġgno":10735,"Ġabgesch":10736,"Ġplatten":10737,"Ġdrink":10738,"Ġhervorheben":10739,"Ġklin":10740,"Ġbelastung":10741,"Ġloaded":10742,"Ġfaith":10743,"Ġamerikanische":10744,"Ġfunctional":10745,"Ġbetreuung":10746,"Ġgerichtshofs":10747,"Ġanspruchs":10748,"Ġbedau":10749,"Ġerfolgreichen":10750,"Ġgratulieren":10751,"Ġagenturen":10752,"Ġmessages":10753,"Ġcontaining":10754,"Ġdoss":10755,"Ġweather":10756,"Ġirs":10757,"Ġbabwe":10758,"Ġkonserv":10759,"Ġhervorragende":10760,"Ġimpressive":10761,"Ġregierungschefs":10762,"ĠernÃ¤hrung":10763,"Ġeyes":10764,"Ġproduziert":10765,"Ġdesktop":10766,"Ġchannels":10767,"Ġthirdly":10768,"Ġawarded":10769,"Ġmrpresident":10770,"ĠbeschluÃŁ":10771,"Ġverm":10772,"Ġrechter":10773,"Ġpraktische":10774,"Ġattrib":10775,"2004":10776,"Ġkorruption":10777,"Ġerie":10778,"Ġplacement":10779,"Ġfavourable":10780,"Ġtch":10781,"day":10782,"Ġphenomen":10783,"el":10784,"Ġkrankheit":10785,"ĠauÃŁenpolitik":10786,"Ġmissions":10787,"Ġcommerce":10788,"des":10789,"Ġthedr":10790,"Ġlayou":10791,"Ġvereinigte":10792,"Ġdigitalen":10793,"ĠerwÃ¤hn":10794,"ĠzulÃ¤ss":10795,"Ġperspektive":10796,"Ġniederlanden":10797,"Ġ87":10798,"Ġores":10799,"Ġserves":10800,"Ġthr":10801,"Ġtraditions":10802,"Ġstages":10803,"Ġcrimes":10804,"Ġlocations":10805,"Ġsachen":10806,"Ġoperator":10807,"Ġanger":10808,"Ġidy":10809,"Ġverletzung":10810,"Ġacknowled":10811,"Ġicing":10812,"Ġzusammenzu":10813,"Ġjuris":10814,"Ġeinnahmen":10815,"Ġsong":10816,"Ġfurniture":10817,"Ġcompact":10818,"Ġanna":10819,"Ġdecline":10820,"ĠvollstÃ¤ndigen":10821,"ĠgebÃ¼hr":10822,"Ġfreih":10823,"Ġuniversities":10824,"Ġbles":10825,"Ġhet":10826,"Ġstadtzentrum":10827,"Ġcomponent":10828,"Ġandon":10829,"Ġinhabit":10830,"Ġgespie":10831,"Ġgrav":10832,"ĠergÃ¤nzt":10833,"Ġpharma":10834,"07":10835,"Ġgst":10836,"Ġpersonnel":10837,"Ġverwal":10838,"Ġvisible":10839,"Ġlautet":10840,"Ġalcohol":10841,"Ġentgelt":10842,"as":10843,"Ġferr":10844,"ĠsorgfÃ¤ltig":10845,"ĠmÃ¼nchen":10846,"Ġnorwegen":10847,"Ġrepair":10848,"Ġersetzt":10849,"Ġholen":10850,"Ġillance":10851,"Ġaccounting":10852,"Ġprofessionals":10853,"Ġinstitutionelle":10854,"Ġgriechischen":10855,"Ġdg":10856,"Ġumstrukturierung":10857,"Ġuniform":10858,"Ġkurze":10859,"Ġhungarian":10860,"Ġnetzes":10861,"Ġreaching":10862,"ĠÃ¼berlegungen":10863,"Ġsicheren":10864,"Ġequivalent":10865,"Ġexistenz":10866,"Ġanlass":10867,"ĠkÃ¼hl":10868,"Ġauftrags":10869,"Ġjourney":10870,"Ġletzter":10871,"ĠanhÃ¤n":10872,"Ġimpression":10873,"Ġsenken":10874,"Ġfinanzkrise":10875,"Ġsocieties":10876,"Ġcandidates":10877,"Ġreduzieren":10878,"Ġindirect":10879,"Ġsatisfaction":10880,"Ġconditioning":10881,"Ġausgezeichneten":10882,"Ġausbildungs":10883,"Ġdocumentation":10884,"Ġslowakei":10885,"ĠsouverÃ¤n":10886,"Ġvorder":10887,"Ġuster":10888,"Ġaer":10889,"Ġsaal":10890,"Ġforecast":10891,"Ġngos":10892,"Ġenty":10893,"Ġschatten":10894,"Ġsucceed":10895,"ĠfrÃ¼hjahr":10896,"ĠidentitÃ¤t":10897,"Ġaddressing":10898,"Ġexplicit":10899,"Ġjury":10900,"Ġtwitter":10901,"Ġvil":10902,"Ġumsatz":10903,"Ġbetreiben":10904,"Ġpartly":10905,"Ġundertakings":10906,"Ġwik":10907,"Ġtoile":10908,"Ġoured":10909,"Ġcoherent":10910,"Ġdikt":10911,"Ġexpo":10912,"Ġwandels":10913,"Ġchecks":10914,"Ġrechtsgrundlage":10915,"Ġwonach":10916,"amer":10917,"Ġlasting":10918,"Ġhell":10919,"ĠtrÃ¤ger":10920,"Ġconservation":10921,"Ġeigenes":10922,"ĠgeprÃ¤":10923,"Ġkonkret":10924,"Ġvorausschau":10925,"Ġcorrectly":10926,"Ġgeplanten":10927,"Ġsending":10928,"Ġpublication":10929,"ĠansprÃ¼che":10930,"Ġwf":10931,"Ġgrate":10932,"know":10933,"ĠÃ¶ffentlicher":10934,"Ġbott":10935,"Ġzwangs":10936,"Ġwelth":10937,"Ġtemperature":10938,"Ġmaced":10939,"Ġapple":10940,"Ġremark":10941,"Ġguid":10942,"Ġgemeinde":10943,"Ġgestaltet":10944,"Ġbewusstsein":10945,"gruppe":10946,"Ġbesonderer":10947,"Ġpieces":10948,"Ġmenschliche":10949,"Ġlift":10950,"Ġanzuwenden":10951,"Ġassoziierungs":10952,"Ġ72":10953,"ĠunmÃ¶glich":10954,"Ġdivided":10955,"Ġstellvertreten":10956,"Ġinvestoren":10957,"Ġerer":10958,"Ġerreichung":10959,"coun":10960,"98":10961,"Ġbaus":10962,"Ġinstruct":10963,"ĠÃ¼bernimmt":10964,"Ġschung":10965,"Ġnamed":10966,"Ġinkraft":10967,"Ġregarded":10968,"Ġgardens":10969,"ĠunabhÃ¤ngige":10970,"Ġsurveillance":10971,"Ġconfiguration":10972,"Ġvertie":10973,"Ġangemessenen":10974,"Ġlunch":10975,"Ġprinting":10976,"Ġdog":10977,"Ġobliged":10978,"Ġao":10979,"Ġsuperior":10980,"Ġral":10981,"ĠÃ¼brigens":10982,"Ġgespr":10983,"ĠÃ¤ss":10984,"Ġdelighted":10985,"ĠÃ¤rz":10986,"Ġregionaler":10987,"Ġrevised":10988,"Ġmandat":10989,"Ġamended":10990,"Ġtheme":10991,"Ġhygien":10992,"Ġempfohlen":10993,"Ġsupplier":10994,"um":10995,"Ġlists":10996,"Ġbesorgt":10997,"Ġgleichstellung":10998,"Ġalternativen":10999,"ĠgepÃ¤ck":11000,"Ġalarm":11001,"Ġood":11002,"Ġworry":11003,"Ġperiods":11004,"Ġbottom":11005,"Ġpit":11006,"Ġanzeigen":11007,"Ġkomme":11008,"Ġpromises":11009,"Ġquotas":11010,"Ġmerger":11011,"Ġrass":11012,"Ġkommissionsmitglied":11013,"Ġdelegationen":11014,"Ġcredibility":11015,"Ġkonflikte":11016,"Ġpakete":11017,"Ġdenkt":11018,"Ġresistance":11019,"Ġzusammenhalt":11020,"Ġstockholm":11021,"Ġloan":11022,"Ġkov":11023,"Ġcarrying":11024,"Ġeinkommens":11025,"Ġamin":11026,"Ġnationals":11027,"ĠausgewÃ¤hl":11028,"Ġoles":11029,"Ġtechniques":11030,"Ġmazed":11031,"Ġshutt":11032,"Ġsteller":11033,"Ġverkaufen":11034,"Ġendorse":11035,"Ġkostet":11036,"Ġeditor":11037,"Ġbedrooms":11038,"ĠgÃ¼nstig":11039,"Ġsupervisory":11040,"Ġikt":11041,"Ġshowing":11042,"Ġdiscovered":11043,"Ġerrichtung":11044,"Ġdahin":11045,"Ġeinzusetzen":11046,"Ġaddresses":11047,"Ġinstalliert":11048,"Ġbling":11049,"Ġensures":11050,"Ġeinstellungen":11051,"Ġtaiwan":11052,"ĠverÃ¤nder":11053,"ĠdiesbezÃ¼glich":11054,"Ġkanada":11055,"Ġizza":11056,"Ġinvite":11057,"Ġprospects":11058,"ĠkohÃ¤sionspolitik":11059,"ĠrÃ¼ckgang":11060,"Ġknapp":11061,"ĠÃ¶konomischen":11062,"Ġgeteilt":11063,"Ġgoverning":11064,"Ġluftfahrt":11065,"Ġkilometer":11066,"Ġtox":11067,"Ġvollem":11068,"Ġrue":11069,"Ġflights":11070,"Ġorganic":11071,"Ġhun":11072,"Ġreh":11073,"Ġbelle":11074,"Ġabandon":11075,"Ġvorsicht":11076,"Ġyoure":11077,"Ġbringung":11078,"ĠeinschlÃ¤gigen":11079,"Ġicy":11080,"Ġisraeli":11081,"Ġunterliegen":11082,"Ġdetermination":11083,"Ġsund":11084,"Ġmexico":11085,"ĠgrenzÃ¼berschreitenden":11086,"Ġproven":11087,"Ġoffene":11088,"Ġreceiving":11089,"Ġfootball":11090,"Ġincentives":11091,"Ġrect":11092,"Ġerecht":11093,"Ġthail":11094,"Ġbearbeitung":11095,"Ġfarming":11096,"Ġslovenia":11097,"das":11098,"Ġturning":11099,"ĠfÃ¼llen":11100,"Ġbereiten":11101,"Ġdrittel":11102,"Ġgenerate":11103,"Ġails":11104,"Ġeinfachen":11105,"Ġbuchung":11106,"Ġlithuania":11107,"Ġstreets":11108,"Ġseat":11109,"Ġunderstood":11110,"Ġstarts":11111,"Ġdesigns":11112,"Ġbedeutende":11113,"Ġherbst":11114,"Ġpharmac":11115,"Ġcz":11116,"ĠÃ¤nderungsantrÃ¤gen":11117,"Ġindicators":11118,"Ġburger":11119,"Ġkulturen":11120,"Ġnachhaltigkeit":11121,"ĠgÃ¶":11122,"Ġoperative":11123,"Ġhabt":11124,"Ġtrig":11125,"Ġfertigung":11126,"Ġslovakia":11127,"Ġimmigrants":11128,"ĠÃ¼bersetzung":11129,"Ġbritain":11130,"Ġappointment":11131,"Ġrobert":11132,"Ġherzustellen":11133,"ĠÃ¤gyp":11134,"Ġuel":11135,"Ġsteigern":11136,"Ġswift":11137,"ĠÃ¤fen":11138,"Ġdoll":11139,"Ġdestruction":11140,"Ġplied":11141,"Ġroutes":11142,"Ġcuts":11143,"Ġpuer":11144,"Ġtopics":11145,"Ġraising":11146,"Ġleichter":11147,"Ġhervorgehoben":11148,"Ġkonjunktur":11149,"hour":11150,"Ġzugute":11151,"Ġeinfacher":11152,"ĠbeglÃ¼ckwÃ¼nschen":11153,"ĠhinzufÃ¼gen":11154,"Ġbeobach":11155,"Ġmagnet":11156,"Ġalign":11157,"ĠlÃ¤uf":11158,"Ġsul":11159,"Ġelev":11160,"Ġdispute":11161,"Ġelsewhere":11162,"do":11163,"Ġhd":11164,"Ġwissenschaftler":11165,"Ġverehrte":11166,"Ġersetzen":11167,"Ġrepresentation":11168,"Ġallocation":11169,"Ġanhang":11170,"Ġirre":11171,"Ġshift":11172,"Ġsupposed":11173,"ĠabhÃ¤ngigkeit":11174,"Ġura":11175,"Ġmedik":11176,"ĠzurÃ¼ckzufÃ¼hren":11177,"Ġvorlage":11178,"Ġmusste":11179,"Ġumfassend":11180,"Ġniedriger":11181,"ma":11182,"Ġ89":11183,"Ġsud":11184,"Ġorganized":11185,"Ġsigns":11186,"Ġtonnen":11187,"Ġtheoret":11188,"Ġintern":11189,"ĠfÃ¤hige":11190,"ĠÃ¤hnlich":11191,"Ġabschaffung":11192,"Ġuppen":11193,"Ġpatch":11194,"Ġsubstance":11195,"Ġonic":11196,"Ġsomewhat":11197,"Ġproperties":11198,"Ġcomputers":11199,"Ġbemerken":11200,"Ġbeamten":11201,"Ġarmed":11202,"Ġdeliber":11203,"Ġtrees":11204,"Ġsecret":11205,"Ġgespielt":11206,"Ġverank":11207,"Ġ67":11208,"Ġgezwungen":11209,"Ġaufrechter":11210,"Ġgrateful":11211,"Ġkalen":11212,"Ġiring":11213,"Ġfox":11214,"Ġkra":11215,"Ġhtml":11216,"Ġsensor":11217,"Ġdriver":11218,"ebene":11219,"Ġwirksamen":11220,"Ġsimult":11221,"Ġfotograf":11222,"Ġezb":11223,"Ġsatisfactory":11224,"Ġsocialist":11225,"Ġague":11226,"Ġdistributed":11227,"ĠflÃ¼s":11228,"Ġvirus":11229,"Ġgeographical":11230,"Ġbedroom":11231,"Ġbeobachten":11232,"Ġneighbouring":11233,"Ġausweit":11234,"Ġrecher":11235,"Ġtimet":11236,"Ġcleaning":11237,"Ġvorstellung":11238,"Ġtrieb":11239,"1999":11240,"Ġgeplant":11241,"Ġkonzep":11242,"Ġcareful":11243,"ĠschlÃ¤ge":11244,"Ġemission":11245,"Ġairports":11246,"Ġpercentage":11247,"Ġetabl":11248,"Ġprojekts":11249,"Ġstammen":11250,"Ġversicherung":11251,"Ġserbien":11252,"Ġkompetenzen":11253,"Ġscript":11254,"Ġspectac":11255,"Ġexit":11256,"med":11257,"Ġked":11258,"Ġdell":11259,"Ġappeared":11260,"Ġreize":11261,"Ġrender":11262,"Ġpelt":11263,"Ġspecified":11264,"Ġphones":11265,"Ġcareer":11266,"adresse":11267,"Ġares":11268,"Ġifor":11269,"Ġsatur":11270,"Ġbrasilien":11271,"Ġvorsitzenden":11272,"Ġgeschwindigkeit":11273,"Ġverkauft":11274,"Ġverbrauchern":11275,"he":11276,"Ġvary":11277,"Ġspaz":11278,"2007":11279,"ĠvermÃ¶gens":11280,"lÃ¤nder":11281,"Ġcad":11282,"Ġinteroper":11283,"Ġsatisfied":11284,"Ġplacing":11285,"man":11286,"Ġ%.":11287,"Ġkonzentriert":11288,"Ġangewandt":11289,"Ġhilf":11290,"Ġschwellen":11291,"hand":11292,"no":11293,"ĠratsprÃ¤sidentschaft":11294,"Ġthomas":11295,"Ġgemeinsamer":11296,"Ġtransitional":11297,"Ġchapter":11298,"Ġror":11299,"Ġbaut":11300,"Ġconstitutes":11301,"Ġimperial":11302,"Ġeinspar":11303,"Ġaterale":11304,"Ġthol":11305,"Ġbezahlen":11306,"Ġgested":11307,"Ġwelchem":11308,"Ġlessons":11309,"ĠverstÃ¤rkte":11310,"Ġbosnien":11311,"Ġinations":11312,"Ġintelligent":11313,"Ġshowe":11314,"Ġanwen":11315,"Ġcompetitors":11316,"Ġambiente":11317,"Ġmonopol":11318,"Ġoecd":11319,"Ġitten":11320,"Ġtransmit":11321,"Ġletztendlich":11322,"Ġbosnia":11323,"Ġanle":11324,"Ġschm":11325,"Ġstandardis":11326,"Ġphrase":11327,"Ġfinanced":11328,"Ġwirtschaftskrise":11329,"Ġverfolgung":11330,"Ġ63":11331,"45":11332,"ewg":11333,"Ġkus":11334,"Ġpum":11335,"Ġraten":11336,"Ġassume":11337,"Ġgraphics":11338,"Ġkomprom":11339,"Ġole":11340,"Ġdied":11341,"Ġgreg":11342,"Ġviv":11343,"Ġplenum":11344,"Ġshowed":11345,"Ġumsetzen":11346,"Ġdemanding":11347,"Ġnonetheless":11348,"Ġshadow":11349,"Ġconsent":11350,"ĠmilitÃ¤rischen":11351,"Ġwollten":11352,"Ġikes":11353,"Ġieller":11354,"ĠwÃ¼rdig":11355,"Ġcontributed":11356,"ĠmÃ¤ngel":11357,"Ġpier":11358,"Ġvater":11359,"Ġgenerated":11360,"Ġursachen":11361,"Ġvorbereitet":11362,"Ġdanish":11363,"Ġterminal":11364,"ĠpalÃ¤stinensischen":11365,"mon":11366,"Ġassociations":11367,"Ġbeabsichtigt":11368,"Ġrated":11369,"Ġreservations":11370,"Ġschwere":11371,"Ġops":11372,"Ġcancer":11373,"Ġschr":11374,"Ġdigitale":11375,"Ġpossibly":11376,"Ġoverview":11377,"Ġlooked":11378,"ste":11379,"Ġziffer":11380,"Ġreject":11381,"Ġabsor":11382,"Ġstras":11383,"Ġargu":11384,"Ġeinst":11385,"Ġmoroc":11386,"Ġwahrt":11387,"eec":11388,"Ġlev":11389,"Ġmeps":11390,"....":11391,"Ġlagerung":11392,"ĠwÃ¤hler":11393,"Ġgarantien":11394,"Ġeneur":11395,"Ġwalls":11396,"Ġdier":11397,"Ġlia":11398,"Ġconsiderably":11399,"Ġinhabitants":11400,"Ġdatum":11401,"Ġeinzigartige":11402,"Ġsoviet":11403,"Ġirischen":11404,"Ġwarrant":11405,"Ġkurse":11406,"ĠÃ¤her":11407,"Ġselling":11408,"Ġberechn":11409,"ĠbeschrÃ¤nken":11410,"Ġentsteht":11411,"Ġabgestimmt":11412,"Ġwolf":11413,"Ġhone":11414,"Ġremed":11415,"Ġgewer":11416,"Ġmissbrauch":11417,"Ġwerkzeug":11418,"Ġometer":11419,"ĠprÃ¤sentiert":11420,"Ġencouraged":11421,"Ġforests":11422,"Ġgestellte":11423,"95":11424,"Ġlaser":11425,"Ġfernsehen":11426,"ĠgerÃ¤ten":11427,"Ġkongress":11428,"Ġergebnissen":11429,"Ġausgangspunkt":11430,"Ġkonfrontiert":11431,"Ġlots":11432,"Ġdere":11433,"Ġsolches":11434,"Ġindividuelle":11435,"Ġdign":11436,"Ġsurely":11437,"Ġweisungen":11438,"Ġjointly":11439,"Ġ07":11440,"Ġipt":11441,"Ġusions":11442,"Ġfertigen":11443,"fri":11444,"ĠschÃ¤tz":11445,"Ġdistingu":11446,"Ġamericas":11447,"haus":11448,"Ġluf":11449,"Ġattend":11450,"Ġachievement":11451,"Ġdishes":11452,"Ġangehen":11453,"Ġchemicals":11454,"Ġcomparison":11455,"Ġeingereicht":11456,"Ġclause":11457,"Ġkolls":11458,"Ġsna":11459,"Ġleid":11460,"Ġabgesehen":11461,"Ġcompla":11462,"Ġmanif":11463,"Ġtraditionelle":11464,"Ġnights":11465,"Ġlung":11466,"Ġlli":11467,"Ġenthaltenen":11468,"Ġstudent":11469,"Ġsla":11470,"Ġmanufacturer":11471,"Ġupgrade":11472,"Ġgewerk":11473,"Ġlogo":11474,"Ġsensible":11475,"Ġanischen":11476,"Ġmostly":11477,"ĠgrÃ¼nbuch":11478,"Ġerheblichen":11479,"Ġxx":11480,"Ġachsen":11481,"ĠerÃ¶rtert":11482,"Ġentrepreneur":11483,"Ġeinwohner":11484,"Ġgrenzung":11485,"Ġberuhen":11486,"Ġausser":11487,"line":11488,"Ġtwenty":11489,"Ġscheinen":11490,"Ġpole":11491,"ĠausgefÃ¼hrt":11492,"Ġmovements":11493,"Ġeligible":11494,"Ġcodes":11495,"Ġkonfigur":11496,"Ġrevenue":11497,"Ġspeaker":11498,"ĠprÃ¤m":11499,"Ġreflects":11500,"Ġauge":11501,"Ġgeleitet":11502,"Ġsodass":11503,"Ġprosec":11504,"Ġdecade":11505,"Ġimplications":11506,"Ġbrechen":11507,"Ġthir":11508,"commer":11509,"ĠangekÃ¼nd":11510,"ĠruÃŁ":11511,"Ġwiederholt":11512,"Ġconcent":11513,"Ġhearing":11514,"Ġdiff":11515,"Ġbereitet":11516,"Ġjenen":11517,"Ġfreundlich":11518,"Ġgeorgia":11519,"Ġcontinuous":11520,"Ġgenerell":11521,"Ġprece":11522,"Ġrub":11523,"Ġsinki":11524,"Ġsir":11525,"Ġabteilung":11526,"Ġafft":11527,"Ġbright":11528,"Ġhaushaltsplan":11529,"Ġinstallieren":11530,"Ġlimin":11531,"Ġzeitung":11532,"Ġwetter":11533,"Ġkurzen":11534,"marquis":11535,"Ġzio":11536,"chr":11537,"ĠnÃ¶r":11538,"Ġanreize":11539,"Ġtons":11540,"Ġprogno":11541,"Ġfinished":11542,"Ġstabilisation":11543,"Ġdisplayed":11544,"web":11545,"Ġ08":11546,"Ġsenior":11547,"Ġfined":11548,"Ġearn":11549,"Ġwidmet":11550,"Ġueller":11551,"Ġregardless":11552,"Ġthres":11553,"Ġproducer":11554,"Ġkehrt":11555,"Ġangepasst":11556,"Ġsplan":11557,"Ġextraordinary":11558,"Ġroof":11559,"ĠropÃ¤ischen":11560,"Ġasp":11561,"Ġconcentration":11562,"Ġandern":11563,"Ġmans":11564,"Ġerzeugnissen":11565,"Ġslightly":11566,"Ġfantastic":11567,"Ġwlan":11568,"Ġnesses":11569,"Ġbewirtschaftung":11570,"scale":11571,"Ġgeog":11572,"Ġild":11573,"Ġreferenz":11574,"depth":11575,"Ġasian":11576,"Ġstern":11577,"Ġdisasters":11578,"Ġprelimin":11579,"ĠbewÃ¤ltigen":11580,"Ġruft":11581,"Ġsebene":11582,"Ġllers":11583,"Ġmarok":11584,"97":11585,"Ġfoss":11586,"ĠbÃ¼cher":11587,"Ġlitauen":11588,"Ġselbe":11589,"Ġbilateralen":11590,"Ġsuggested":11591,"Ġhighlighted":11592,"Ġfusion":11593,"Ġgekenn":11594,"Ġcollege":11595,"Ġperformed":11596,"Ġrecorded":11597,"Ġcp":11598,"Ġpolitically":11599,"Ġbestellung":11600,"Ġamm":11601,"Ġaggress":11602,"Ġpaying":11603,"ĠjÃ¤hrlichen":11604,"ĠmÃ¤ÃŁigen":11605,"Ġwenigsten":11606,"Ġsufficiently":11607,"Ġverbinden":11608,"Ġsenz":11609,"Ġtren":11610,"Ġfinances":11611,"Ġnormalerweise":11612,"Ġanmerk":11613,"Ġitze":11614,"ĠgroÃŁzÃ¼":11615,"Ġlogist":11616,"Ġherunterladen":11617,"Ġcodec":11618,"Ġfinish":11619,"ĠfrÃ¼hstÃ¼cks":11620,"Ġstatistiken":11621,"Ġrichter":11622,"Ġhundert":11623,"Ġgul":11624,"Ġfifth":11625,"friend":11626,"}}":11627,"ĠÃ¼berras":11628,"ĠeinzufÃ¼hren":11629,"Ġentlastung":11630,"Ġverbringen":11631,"Ġversprechen":11632,"Ġstrasse":11633,"Ġauthorisation":11634,"Ġvp":11635,"Ġcommunitys":11636,"Ġverzeichnis":11637,"Ġguidance":11638,"Ġwiegend":11639,"Ġdoors":11640,"Ġmazedonien":11641,"Ġarbit":11642,"Ġverringert":11643,"Ġzza":11644,"Ġtower":11645,"ĠschÃ¶nsten":11646,"Ġ82":11647,"Ġkopenhagen":11648,"Ġumfangreiche":11649,"99":11650,"bÃ¼rger":11651,"Ġverband":11652,"Ġdoesnt":11653,"Ġreflected":11654,"ĠglaubwÃ¼rdigkeit":11655,"Ġmacedonia":11656,"Ġthats":11657,"ĠÃ¼bermittelt":11658,"Ġmn":11659,"ĠsitÃ¤t":11660,"Ġreicher":11661,"Ġstufen":11662,"Ġstrecke":11663,"ĠÃ¼berblick":11664,"Ġgebill":11665,"Ġoccasions":11666,"Ġblind":11667,"Ġcollap":11668,"Ġoffiziellen":11669,"Ġslowenien":11670,"Ġrahmenbedingungen":11671,"Ġvocational":11672,"Ġseminar":11673,"Ġansichten":11674,"Ġorganisieren":11675,"Ġevolution":11676,"Ġska":11677,"Ġauthorised":11678,"Ġwechseln":11679,"econom":11680,"Ġperfekt":11681,"Ġmedicines":11682,"Ġpreliminary":11683,"Ġcrib":11684,"Ġrefers":11685,"Ġhelsinki":11686,"Ġsubjects":11687,"Ġnachbarn":11688,"Ġspeichern":11689,"Ġcompletion":11690,"ĠauÃŁerordentlich":11691,"Ġausweitung":11692,"Ġfahrzeugen":11693,"ĠbeschÃ¤ftigen":11694,"ĠgefÃ¼gt":11695,"Ġeigentums":11696,"Ġrestore":11697,"Ġtheor":11698,"ĠschÃ¼ler":11699,"Ġauber":11700,"Ġdifficulty":11701,"ĠgenÃ¼gend":11702,"ĠgesprÃ¤ch":11703,"Ġvereinbarten":11704,"ĠlÃ¤ÃŁt":11705,"Ġdisziplin":11706,"Ġreit":11707,"Ġsteigt":11708,"Ġcolom":11709,"Ġkorrektur":11710,"ĠdrÃ¼ckt":11711,"Ġpassiert":11712,"known":11713,"Ġakzep":11714,"Ġsought":11715,"Ġreb":11716,"Ġformed":11717,"Ġlinken":11718,"Ġinteressante":11719,"Ġradical":11720,"Ġexcluded":11721,"ĠwÃ¤hrungsunion":11722,"Ġgeord":11723,"ĠungsmaÃŁnahmen":11724,"Ġausgezeichnet":11725,"Ġiny":11726,"Ġreplaced":11727,"Ġgehende":11728,"Ġgegend":11729,"Ġ229":11730,"Ġcorporation":11731,"Ġsolely":11732,"Ġversuche":11733,"Ġnap":11734,"Ġpeg":11735,"Ġaven":11736,"Ġcto":11737,"Ġakzeptabel":11738,"Ġeta":11739,"Ġporters":11740,"Ġzeichnungen":11741,"Ġnische":11742,"Ġvertrieb":11743,"Ġwines":11744,"Ġplural":11745,"Ġsurplus":11746,"Ġarrive":11747,"Ġsd":11748,"Ġhut":11749,"Ġhinweg":11750,"ĠgroÃŁem":11751,"Ġbudapest":11752,"Ġschicht":11753,"Ġthreats":11754,"Ġgreatly":11755,"Ġarising":11756,"Ġbeeindruck":11757,"Ġaser":11758,"Ġdirectory":11759,"Ġseeks":11760,"Ġxen":11761,"ĠÃ¼bereinkommens":11762,"Ġsleep":11763,"35":11764,"bu":11765,"Ġln":11766,"Ġ09":11767,"Ġmoz":11768,"Ġreserved":11769,"Ġausgehen":11770,"Ġautobahn":11771,"Ġarte":11772,"Ġzukunfts":11773,"Ġgestattet":11774,"Ġsuggestions":11775,"ĠgerÃ¤umt":11776,"Ġsubsequent":11777,"Ġexploitation":11778,"class":11779,"Ġmista":11780,"Ġbsp":11781,"Ġauswirken":11782,"Ġtonnes":11783,"Ġmort":11784,"Ġtrips":11785,"%)":11786,"Ġafrikanischen":11787,"Ġmischung":11788,"Ġvorstellen":11789,"Ġinternationally":11790,"Ġeingang":11791,"Ġumul":11792,"Ġrestor":11793,"Ġarguments":11794,"ĠbÃ¶rse":11795,"Ġsammeln":11796,"ĠausrÃ¼stung":11797,"Ġzim":11798,"Ġcue":11799,"Ġartist":11800,"Ġchildrens":11801,"Ġwiderspruch":11802,"Ġscann":11803,"ĠstÃ¤tigkeit":11804,"Ġeinfuhr":11805,"Ġreturned":11806,"Ġleban":11807,"Ġstatten":11808,"Ġverteidigungs":11809,"Ġquantit":11810,"Ġdoub":11811,"Ġscore":11812,"Ġverdient":11813,"Ġeffizienter":11814,"ĠprÃ¼fungen":11815,"Ġgeplante":11816,"Ġjohannes":11817,"Ġsony":11818,"Ġefta":11819,"Ġambition":11820,"Ġremained":11821,"Ġoftware":11822,"Ġbass":11823,"ap":11824,"Ġfunded":11825,"ĠflughÃ¤fen":11826,"Ġkrebs":11827,"Ġthaus":11828,"Ġgastr":11829,"recht":11830,"Ġquarters":11831,"Ġkonsequenzen":11832,"Ġexternen":11833,"ĠuneingeschrÃ¤nkt":11834,"Ġinklus":11835,"Ġreten":11836,"Ġaluminium":11837,"Ġaussprechen":11838,"Ġindo":11839,"Ġgerichtete":11840,"Ġentschlossenheit":11841,"Ġverzerr":11842,"Ġtieren":11843,"Ġoub":11844,"Ġseln":11845,"Ġsicherheitspolitik":11846,"ĠmilitÃ¤rische":11847,"Ġhunger":11848,"Ġkatalog":11849,"Ġernsthaft":11850,"Ġ62":11851,"Ġergibt":11852,"Ġchtenstein":11853,"Ġvorgelegten":11854,"Ġboards":11855,"Ġreduziert":11856,"Ġverarbeit":11857,"Ġscientists":11858,"gover":11859,"Ġaccurate":11860,"Ġvermittl":11861,"Ġreasoned":11862,"Ġrepar":11863,"Ġinnovationen":11864,"Ġharbour":11865,"Ġrenovated":11866,"Ġallzu":11867,"Ġgebeten":11868,"Ġrose":11869,"Ġwoman":11870,"Ġgeg":11871,"Ġinvites":11872,"Ġdc":11873,"Ġsplit":11874,"Ġbesetz":11875,"Ġexplos":11876,"Ġbezogenen":11877,"with":11878,"Ġpere":11879,"Ġheizung":11880,"Ġstored":11881,"Ġentwicklungshilfe":11882,"Ġeventually":11883,"Ġreaction":11884,"Ġdonner":11885,"Ġarrest":11886,"Ġrestricted":11887,"Ġgay":11888,"Ġinsp":11889,"Ġgained":11890,"Ġbarnier":11891,"Ġamending":11892,"Ġhoffentlich":11893,"Ġgerichteten":11894,"Ġalpen":11895,"Ġesta":11896,"Ġnecessarily":11897,"Ġwc":11898,"Ġliban":11899,"Ġbean":11900,"Ġmineral":11901,"Ġaffil":11902,"Ġbegriffen":11903,"Ġbalkon":11904,"Ġschreck":11905,"Ġinsofern":11906,"Ġultra":11907,"Ġinformationsgesellschaft":11908,"Ġtaxpay":11909,"Ġprovinz":11910,"Ġworkshops":11911,"Ġtechnisch":11912,"Ġbeseitigen":11913,"Ġopens":11914,"Ġenvironmentally":11915,"Ġautomotive":11916,"Ġinos":11917,"Ġgenerations":11918,"Ġoma":11919,"ĠstrÃ¶":11920,"rechts":11921,"Ġschlafzimmer":11922,"Ġansehen":11923,"Ġmatic":11924,"Ġnegotiation":11925,"Ġchile":11926,"ĠverÃ¤nderung":11927,"Ġindividuell":11928,"ĠfuÃŁball":11929,"Ġando":11930,"Ġverd":11931,"Ġschie":11932,"Ġestonia":11933,"Ġliechtenstein":11934,"Ġshortly":11935,"Ġasht":11936,"Ġchef":11937,"Ġifizieren":11938,"Ġbahnen":11939,"Ġhid":11940,"ĠbezÃ¼":11941,"Ġbewerten":11942,"Ġmittlerweile":11943,"Ġasser":11944,"Ġpolitisches":11945,"Ġgreifende":11946,"Ġgefallen":11947,"Ġunterzeichnung":11948,"country":11949,"Ġsimultane":11950,"Ġdistribut":11951,"Ġanbetracht":11952,"Ġbeings":11953,"Ġverteilt":11954,"Ġrechnen":11955,"Ġikanischen":11956,"Ġlehrer":11957,"Ġsuit":11958,"Ġwachsenden":11959,"Ġausgestatte":11960,"Ġfed":11961,"Ġbast":11962,"Ġencounter":11963,"Ġwage":11964,"Ġbadezimmer":11965,"Ġidem":11966,"ĠĠĠ":11967,"Ġpillar":11968,"Ġfestzustellen":11969,"Ġdynamik":11970,"Ġpropag":11971,"Ġinstru":11972,"Ġattached":11973,"Ġgelung":11974,"Ġstylish":11975,"Ġconfidential":11976,"Ġspektrum":11977,"Ġintent":11978,"Ġmiles":11979,"Ġgerechtigkeit":11980,"Ġtea":11981,"Ġmodal":11982,"Ġbrother":11983,"Ġaspekten":11984,"Ġiop":11985,"ĠkÃ¤":11986,"Ġ57":11987,"Ġchest":11988,"Ġeinzur":11989,"Ġcanon":11990,"Ġwesentlicher":11991,"Ġlandwirtschaftlichen":11992,"Ġdining":11993,"Ġima":11994,"Ġinkrafttreten":11995,"ben":11996,"Ġaper":11997,"Ġbord":11998,"Ġinade":11999,"Ġpetitions":12000,"Ġrecords":12001,"Ġdrag":12002,"Ġschicken":12003,"Ġrelief":12004,"Ġdesto":12005,"Ġresearchers":12006,"Ġlouis":12007,"Ġboy":12008,"Ġ1970":12009,"Ġafternoon":12010,"Ġarbeitslosen":12011,"Ġpix":12012,"Ġinhaber":12013,"Ġsurroundings":12014,"Ġdirected":12015,"Ġemployers":12016,"Ġlastly":12017,"qu":12018,"Ġadults":12019,"Ġregionalpolitik":12020,"Ġerteilt":12021,"Ġratification":12022,"Ġclosure":12023,"Ġfirmly":12024,"Ġintegriert":12025,"Ġstattdessen":12026,"Ġ02":12027,"Ġassure":12028,"Ġholl":12029,"Ġratic":12030,"Ġmehrfach":12031,"Ġirt":12032,"Ġopera":12033,"Ġnormally":12034,"Ġali":12035,"Ġsounds":12036,"ĠschÃ¤tzen":12037,"Ġrobust":12038,"Ġcollect":12039,"Ġpflichten":12040,"Ġliehen":12041,"Ġarbeitnehmern":12042,"Ġtelekommunikations":12043,"Ġtextil":12044,"inclu":12045,"Ġzero":12046,"Ġhomes":12047,"ĠhÃ¤fen":12048,"Ġtschechische":12049,"Ġrical":12050,"Ġcomplicated":12051,"Ġfreihandels":12052,"Ġfees":12053,"Ġsonne":12054,"ĠprÃ¤senz":12055,"Ġplastic":12056,"Ġvieles":12057,"Ġwiederholen":12058,"Ġmillennium":12059,"Ġsongs":12060,"Ġpresidents":12061,"Ġvolumen":12062,"Ġgespeichert":12063,"Ġmakers":12064,"Ġheading":12065,"Ġboast":12066,"Ġgremien":12067,"Ġbefehl":12068,"Ġjener":12069,"Ġluftverkehrs":12070,"Ġwalt":12071,"Ġfriday":12072,"Ġinvestitionsbank":12073,"Ġanden":12074,"Ġverle":12075,"Ġcking":12076,"Ġacknowledge":12077,"Ġocean":12078,"Ġhohem":12079,"Ġinstrumenten":12080,"Ġipher":12081,"Ġpresenting":12082,"Ġmeldet":12083,"Ġmitarbeitern":12084,"Ġcomplaints":12085,"Ġ97":12086,"Ġtrek":12087,"Ġghter":12088,"Ġrout":12089,"Ġlayer":12090,"Ġwendungen":12091,"Ġstaatlicher":12092,"Ġkilled":12093,"Ġvacation":12094,"Ġvisited":12095,"Ġfreitag":12096,"Ġlegten":12097,"Ġfrucht":12098,"Ġceng":12099,"ĠweiÃŁbuch":12100,"Ġgradually":12101,"Ġfiel":12102,"Ġblan":12103,"Ġukrain":12104,"Ġkennzeichnung":12105,"Ġsalzburg":12106,"28":12107,"Ġvermitteln":12108,"Ġprague":12109,"Ġfolgendes":12110,"Ġreaf":12111,"Ġantib":12112,"ĠÃ¤rer":12113,"Ġbelief":12114,"Ġfeind":12115,"Ġruhig":12116,"Ġvisiting":12117,"Ġappropriations":12118,"Ġsogenannten":12119,"Ġenswert":12120,"Ġsuffered":12121,"Ġconcepts":12122,"Ġsowjet":12123,"Ġthurs":12124,"Ġmittelfrist":12125,"Ġalongside":12126,"Ġdating":12127,"Ġholder":12128,"Ġkie":12129,"Ġerfreut":12130,"ĠÃ¼bersicht":12131,"Ġguine":12132,"organ":12133,"Ġendet":12134,"Ġgreenhouse":12135,"Ġchampions":12136,"Ġviolations":12137,"Ġersuchen":12138,"Ġgemeinsames":12139,"Ġdrinks":12140,"Ġcurs":12141,"Ġshuttle":12142,"Ġsphere":12143,"Ġunsicherheit":12144,"Ġoriginally":12145,"Ġossen":12146,"Ġimagine":12147,"Ġexplained":12148,"Ġgetre":12149,"Ġgeraten":12150,"daten":12151,"Ġapprove":12152,"Ġstrahl":12153,"Ġvertrages":12154,"Ġverfas":12155,"Ġdesired":12156,"Ġangeb":12157,"ĠmÃ¶bel":12158,"Ġthro":12159,"Ġidentification":12160,"Ġminib":12161,"Ġpromised":12162,"Ġexerc":12163,"friendly":12164,"Ġpartnerschaften":12165,"Ġsecurities":12166,"Ġrelaxation":12167,"Ġruling":12168,"Ġexciting":12169,"Ġindividuellen":12170,"Ġurgently":12171,"Ġprovince":12172,"Ġgefasst":12173,"Ġindicate":12174,"Ġbemerkung":12175,"Ġintegrate":12176,"govern":12177,"Ġbeachtung":12178,"Ġchanceng":12179,"Ġreibungs":12180,"Ġillegale":12181,"ĠprÃ¤vention":12182,"Ġerleichtert":12183,"Ġspoken":12184,"Ġwillingness":12185,"--":12186,"Ġforcing":12187,"Ġhole":12188,"Ġreihen":12189,"Ġcapabilities":12190,"ĠÃ¼ben":12191,"Ġbedeutend":12192,"Ġgewe":12193,"Ġtrieben":12194,"Ġvertretung":12195,"Ġmagazine":12196,"Ġgrants":12197,"ĠbestÃ¤tigung":12198,"Ġverabschied":12199,"Ġlom":12200,"Ġimo":12201,"Ġpredict":12202,"Ġpassion":12203,"Ġsignificance":12204,"Ġvarian":12205,"Ġconcentrate":12206,"Ġela":12207,"Ġkonkurrenz":12208,"Ġashton":12209,"Ġpher":12210,"Ġangegebenen":12211,"Ġchancengleich":12212,"Ġvation":12213,"Ġergie":12214,"Ġbrachte":12215,"Ġweltweite":12216,"Ġsyrien":12217,"Ġsees":12218,"Ġcrises":12219,"Ġaling":12220,"vers":12221,"Ġdiz":12222,"Ġecological":12223,"Ġconventional":12224,"Ġunterricht":12225,"Ġierender":12226,"Ġconcer":12227,"ĠbÃ¼ros":12228,"Ġaufenthalts":12229,"Ġparameters":12230,"Ġmangeln":12231,"Ġpalac":12232,"Ġadobe":12233,"Ġkee":12234,"ĠvorÃ¼ber":12235,"Ġtelecom":12236,"Ġpartnerships":12237,"Ġapproaches":12238,"Ġmunicipal":12239,"fe":12240,"Ġcope":12241,"Ġnachricht":12242,"Ġverabschiedung":12243,"Ġausfuhr":12244,"Ġinsist":12245,"ĠmÃ¼ssten":12246,"Ġprofits":12247,"Ġuntersuchen":12248,"Ġrechtzeitig":12249,"Ġbewertet":12250,"Ġnitten":12251,"Ġpermitted":12252,"Ġmagnific":12253,"Ġaccidents":12254,"ip":12255,"Ġanwenden":12256,"Ġhamas":12257,"Ġengaged":12258,"Ġdominant":12259,"Ġvr":12260,"Ġvs":12261,"Ġfinanzieren":12262,"Ġahmen":12263,"dem":12264,"Ġpartial":12265,"Ġmissing":12266,"Ġakadem":12267,"Ġmehrwertsteuer":12268,"Ġderer":12269,"Ġgenerationen":12270,"Ġtariat":12271,"Ġweekly":12272,"Ġvine":12273,"Ġkost":12274,"Ġbekannte":12275,"Ġhydro":12276,"Ġhorse":12277,"Ġunterscheiden":12278,"Ġzutage":12279,"Ġnachmittag":12280,"Ġangewendet":12281,"Ġreinforce":12282,"Ġvolkswirtschaften":12283,"Ġdecorated":12284,"Ġalexander":12285,"ĠverlÃ¤ngerung":12286,"Ġklo":12287,"ĠstrÃ¤ger":12288,"Ġordinary":12289,"ĠlÃ¤nge":12290,"Ġgeregelt":12291,"Ġschwim":12292,"Ġtheatre":12293,"Ġbalcony":12294,"Ġchancengleichheit":12295,"Ġpreparations":12296,"ĠstÃ¤rksten":12297,"Ġjetzigen":12298,"Ġgetreten":12299,"Ġspiegelt":12300,"Ġanticip":12301,"Ġardo":12302,"Ġplatte":12303,"Ġeinzelheiten":12304,"Ġhyper":12305,"Ġadapted":12306,"Ġlayout":12307,"Ġaktivieren":12308,"Ġschrittweise":12309,"Ġhandle":12310,"Ġgeringer":12311,"Ġoun":12312,"Ġooms":12313,"Ġsteil":12314,"Ġtourists":12315,"Ġerzielten":12316,"Ġiwf":12317,"Ġdiscre":12318,"Ġattempts":12319,"Ġames":12320,"Ġeinzelstaatlichen":12321,"Ġwice":12322,"Ġcockt":12323,"Ġdokumenten":12324,"ĠÃ¼berwachen":12325,"ĠgrundsÃ¤tzen":12326,"Ġatem":12327,"Ġteu":12328,"Ġsendung":12329,"Ġalties":12330,"Ġinvestition":12331,"Ġverteidigen":12332,"Ġbeurteilung":12333,"Ġestens":12334,"Ġindikatoren":12335,"Ġ53":12336,"ĠzwÃ¶l":12337,"Ġmussten":12338,"Ġnegativen":12339,"ĠgefÃ¤hrdet":12340,"Ġerlebt":12341,"Ġcasa":12342,"Ġcells":12343,"Ġsamen":12344,"Ġwebseiten":12345,"Ġbehinderten":12346,"Ġistrib":12347,"Ġteachers":12348,"Ġerzeugt":12349,"Ġletters":12350,"27":12351,"Ġundoub":12352,"Ġextending":12353,"Ġican":12354,"Ġconventions":12355,"Ġspeisen":12356,"Ġoptimale":12357,"Ġentwickelte":12358,"Ġlaterooms":12359,"Ġautumn":12360,"Ġration":12361,"Ġsant":12362,"Ġais":12363,"Ġerheben":12364,"Ġstraft":12365,"Ġxi":12366,"Ġmining":12367,"Ġinitially":12368,"Ġindian":12369,"ĠgÃ¤nger":12370,"Ġunterstreichen":12371,"Ġterra":12372,"Ġkontrolliert":12373,"Ġdei":12374,"Ġtodesstrafe":12375,"sv":12376,"Ġrehabil":12377,"Ġdebatten":12378,"Ġlatvia":12379,"Ġbiodiversity":12380,"Ġwis":12381,"Ġ51":12382,"Ġziehung":12383,"Ġessentially":12384,"Ġformation":12385,"ĠnatÃ¼rliche":12386,"Ġtty":12387,"ĠstraÃŁ":12388,"Ġacceptance":12389,"Ġhundred":12390,"Ġgebildet":12391,"Ġbefasst":12392,"Ġintegrierte":12393,"Ġmant":12394,"Ġ94":12395,"Ġfestlegen":12396,"ĠoberflÃ¤che":12397,"ĠgrÃ¶s":12398,"Ġfeedback":12399,"Ġformit":12400,"Ġtree":12401,"Ġkreativ":12402,"Ġerlebnis":12403,"Ġeinzigart":12404,"Ġsyria":12405,"ht":12406,"Ġverlu":12407,"Ġconstra":12408,"Ġtreas":12409,"Ġtunis":12410,"Ġgranting":12411,"Ġdefinitely":12412,"Ġlovely":12413,"Ġfeltreffen":12414,"Ġavec":12415,"Ġmultimedia":12416,"Ġstrasbourg":12417,"Ġzeitplan":12418,"Ġversionen":12419,"Ġkonsolidierung":12420,"ĠanfÃ¤n":12421,"Ġminimal":12422,"auf":12423,"Ġanonymous":12424,"ĠwÃ¤ch":12425,"minute":12426,"Ġzurzeit":12427,"Ġnomin":12428,"Ġverschlechter":12429,"Ġoting":12430,"Ġwah":12431,"Ġumwel":12432,"Ġbeider":12433,"Ġnover":12434,"Ġregulated":12435,"ĠausgewÃ¤hlt":12436,"Ġenabled":12437,"Ġakes":12438,"Ġtoward":12439,"Ġcontributing":12440,"Ġgd":12441,"Ġanmeldung":12442,"Ġfreunden":12443,"Ġoperates":12444,"Ġcompanys":12445,"Ġerreichbar":12446,"Ġharmful":12447,"Ġhopes":12448,"Ġshore":12449,"Ġblocks":12450,"Ġpraktischen":12451,"Ġuft":12452,"Ġ81":12453,"Ġaussage":12454,"ĠvollstÃ¤nd":12455,"Ġkontrollieren":12456,"Ġappearance":12457,"Ġanwesend":12458,"Ġuries":12459,"Ġserviert":12460,"Ġaffecting":12461,"96":12462,"Ġconsequence":12463,"Ġsovereignty":12464,"Ġried":12465,"Ġverkaufs":12466,"Ġgastronom":12467,"Ġ54":12468,"Ġorf":12469,"ĠdiesbezÃ¼":12470,"Ġthousand":12471,"Ġtheory":12472,"Ġlles":12473,"Ġvertrie":12474,"Ġpetro":12475,"ĠÃ¶stlichen":12476,"Ġdusche":12477,"Ġsections":12478,"ĠzukÃ¼nftigen":12479,"ĠbedÃ¼rfnissen":12480,"Ġtunes":12481,"Ġmanagers":12482,"Ġbeizutragen":12483,"Ġqualifications":12484,"Ġpublish":12485,"Ġsinc":12486,"Ġweiterentwicklung":12487,"Ġawards":12488,"ĠverhÃ¼":12489,"Ġabstimm":12490,"Ġtric":12491,"Ġmachte":12492,"Ġanbau":12493,"Ġeurostat":12494,"ĠÃ¼berwinden":12495,"Ġkorrig":12496,"Ġbehaupten":12497,"ĠÃ¤gypten":12498,"Ġankun":12499,"ĠÃ¼berwachungs":12500,"Ġerrors":12501,"Ġforums":12502,"Ġaufforderung":12503,"Ġpartition":12504,"Ġbeantworten":12505,"ĠannÃ¤her":12506,"Ġorganisierten":12507,"Ġkohle":12508,"Ġcrow":12509,"Ġitalienische":12510,"Ġaussichten":12511,"Ġhandy":12512,"Ġhochwertige":12513,"Ġbeobacht":12514,"Ġsier":12515,"Ġzuzu":12516,"Ġwirkungs":12517,"Ġallianz":12518,"Ġverluste":12519,"Ġverordnungen":12520,"Ġgeneva":12521,"ĠmÃ¤ÃŁige":12522,"Ġpools":12523,"Ġconsolidation":12524,"ĠabfÃ¤lle":12525,"Ġnachteil":12526,"Ġmaler":12527,"Ġpartnerschafts":12528,"Ġsubstanti":12529,"ĠgrenzÃ¼berschreitende":12530,"160":12531,"Ġpread":12532,"Ġelles":12533,"Ġtische":12534,"Ġhus":12535,"Ġarmee":12536,"economic":12537,"wie":12538,"Ġerrichtet":12539,"Ġhealthcare":12540,"Ġhochrang":12541,"pa":12542,"Ġrecru":12543,"Ġnormalen":12544,"Ġislamic":12545,"Ġfilling":12546,"Ġtradem":12547,"Ġiki":12548,"Ġdeparture":12549,"Ġinmitten":12550,"ĠgleichermaÃŁen":12551,"Ġspectacular":12552,"Ġeveryday":12553,"Ġschritten":12554,"Ġingre":12555,"Ġlining":12556,"Ġ91":12557,"Ġarise":12558,"Ġmitzu":12559,"Ġbai":12560,"Ġstellungnahmen":12561,"Ġtang":12562,"Ġcosy":12563,"Ġvisum":12564,"Ġgehenden":12565,"Ġluxus":12566,"Ġfesten":12567,"Ġdeeply":12568,"Ġey":12569,"Ġhohes":12570,"Ġunderlying":12571,"Ġtravelling":12572,"Ġvacc":12573,"Ġbasel":12574,"Ġstatute":12575,"Ġmanufacture":12576,"Ġinspection":12577,"Ġiera":12578,"Ġvorgestellt":12579,"wh":12580,"Ġwides":12581,"Ġkammer":12582,"Ġgehe":12583,"ĠempfÃ¤nger":12584,"ĠanhÃ¶rung":12585,"ĠzukÃ¼nftige":12586,"Ġworben":12587,"prozess":12588,"ĠstÃ¤tten":12589,"Ġvorstellungen":12590,"Ġgedacht":12591,"fun":12592,"Ġ58":12593,"Ġdisco":12594,"Ġplast":12595,"Ġbeschlusses":12596,"Ġregistrierung":12597,"Ġunil":12598,"Ġabstimmen":12599,"Ġketten":12600,"Ġbeliebt":12601,"ĠgrÃ¶ÃŁen":12602,"Ġfoundations":12603,"Ġpent":12604,"Ġagents":12605,"Ġweilen":12606,"ĠlÃ¤ufig":12607,"Ġbeun":12608,"Ġpromin":12609,"Ġaps":12610,"Ġsaving":12611,"Ġwiderstand":12612,"ĠphÃ¤n":12613,"Ġnull":12614,"Ġbewegungen":12615,"ĠÃ¼bt":12616,"ĠÃ¶ko":12617,"Ġefficiently":12618,"Ġscheit":12619,"Ġjournalisten":12620,"Ġrelates":12621,"Ġbezogene":12622,"Ġforst":12623,"Ġbeenden":12624,"Ġtested":12625,"Ġerb":12626,"Ġerhielt":12627,"ĠrÃ¼cken":12628,"Ġeverybody":12629,"Ġhinweise":12630,"Ġclarify":12631,"Ġtreibhaus":12632,"Ġcombine":12633,"Ġlank":12634,"Ġyan":12635,"Ġburgh":12636,"Ġcater":12637,"Ġaster":12638,"Ġfishermen":12639,"Ġhero":12640,"Ġworst":12641,"Ġreput":12642,"Ġteaching":12643,"Ġraid":12644,"Ġvalen":12645,"Ġtaxi":12646,"Ġasiat":12647,"Ġabgegeben":12648,"Ġimal":12649,"Ġdignity":12650,"Ġvertriebs":12651,"Ġbehoben":12652,"Ġjugendlichen":12653,"Ġcollected":12654,"Ġentscheidenden":12655,"Ġgeorgien":12656,"ĠstÃ¼r":12657,"Ġlehnen":12658,"Ġinneren":12659,"Ġthailand":12660,"Ġdonnerstag":12661,"hu":12662,"Ġgart":12663,"Ġhte":12664,"Ġgelangt":12665,"Ġeffektive":12666,"Ġtables":12667,"Ġablauf":12668,"Ġewsa":12669,"Ġcott":12670,"Ġtimetable":12671,"Ġentrance":12672,"Ġinfrastrukturen":12673,"Ġritten":12674,"Ġora":12675,"Ġiedr":12676,"Ġexecution":12677,"dien":12678,"Ġversichern":12679,"Ġtram":12680,"Ġerstes":12681,"Ġspecialist":12682,"Ġmagic":12683,"Ġdeadline":12684,"Ġthal":12685,"Ġresist":12686,"Ġheut":12687,"ĠgegenwÃ¤rtige":12688,"Ġinclusive":12689,"Ġinland":12690,"Ġati":12691,"Ġvertrieben":12692,"Ġbetrugs":12693,"Ġatis":12694,"Ġanzig":12695,"ĠspaÃŁ":12696,"Ġpuerto":12697,"Ġ61":12698,"Ġorca":12699,"Ġundoubtedly":12700,"ĠÃ¤nen":12701,"Ġecb":12702,"Ġarabischen":12703,"Ġcancell":12704,"Ġcribe":12705,"by":12706,"Ġmovie":12707,"Ġ130":12708,"Ġthursday":12709,"Ġneighbours":12710,"Ġoria":12711,"christ":12712,"Ġwinning":12713,"Ġremarks":12714,"Ġrealise":12715,"Ġlebensmittelsicherheit":12716,"Ġmedicine":12717,"Ġrelevanten":12718,"Ġaccompany":12719,"Ġgliederung":12720,"Ġsubsequently":12721,"ĠrÃ¶m":12722,"Ġiences":12723,"ĠklÃ¤rt":12724,"Ġpanorama":12725,"Ġmanuel":12726,"Ġjahrzehnten":12727,"Ġlus":12728,"Ġdb":12729,"Ġtransferred":12730,"Ġpostal":12731,"Ġtube":12732,"Ġtort":12733,"ĠsÃ¤u":12734,"Ġgemeinden":12735,"Ġphilosophy":12736,"mm":12737,"Ġkirchen":12738,"Ġvorsorge":12739,"Ġberuflichen":12740,"Ġkonzert":12741,"Ġangebracht":12742,"ĠgroÃŁteil":12743,"Ġdiplomatic":12744,"Ġtwin":12745,"ĠÃ¼berarbeitung":12746,"Ġwirtschaftsraum":12747,"Ġerweitern":12748,"ĠerwÃ¤hnen":12749,"Ġmittlere":12750,"ĠgeÃ¤uÃŁert":12751,"Ġfindings":12752,"ĠabschluÃŁ":12753,"Ġursprungs":12754,"Ġmeldungen":12755,"Ġconfirmation":12756,"Ġsupplied":12757,"Ġvertritt":12758,"Ġgegenseitigen":12759,"Ġdoubts":12760,"Ġscene":12761,"Ġamericans":12762,"Ġinstructions":12763,"da":12764,"Ġexchanges":12765,"Ġelf":12766,"Ġablehnung":12767,"Ġiaries":12768,"Ġdisput":12769,"initi":12770,"Ġreinigung":12771,"Ġbedeutenden":12772,"ĠendgÃ¼ltige":12773,"Ġarena":12774,"Ġvergeben":12775,"Ġcoastal":12776,"ĠÃ¼bermitteln":12777,"Ġcompuls":12778,"Ġfreely":12779,"Ġapplicant":12780,"Ġbeschleunigen":12781,"Ġdrast":12782,"Ġdj":12783,"Ġerforderliche":12784,"Ġkrist":12785,"Ġkollegin":12786,"Ġurlaubs":12787,"Ġonn":12788,"Ġleuten":12789,"ĠabschlieÃŁen":12790,"ĠstÃ¼tzen":12791,"Ġkau":12792,"Ġbeschwerden":12793,"Ġempfangen":12794,"Ġrecip":12795,"Ġvista":12796,"Ġiceland":12797,"Ġherkunfts":12798,"Ġprospect":12799,"Ġverantwortlichen":12800,"Ġhast":12801,"Ġgirls":12802,"Ġfemale":12803,"Ġpeak":12804,"Ġmomentan":12805,"Ġleaves":12806,"Ġklassen":12807,"Ġalan":12808,"Ġmare":12809,"Ġfreight":12810,"Ġgestiegen":12811,"Ġvorliegende":12812,"Ġparlamentarischen":12813,"Ġluxurious":12814,"Ġmitteilen":12815,"ĠerÃ¶rtern":12816,"ĠausflÃ¼ge":12817,"europa":12818,"Ġ78":12819,"Ġbefried":12820,"Ġresiden":12821,"Ġreliability":12822,"Ġvina":12823,"Ġmarking":12824,"Ġerwerb":12825,"ĠtrÃ¤glich":12826,"Ġkorrekt":12827,"Ġelectoral":12828,"Ġmanual":12829,"Ġeignet":12830,"Ġlieferanten":12831,"Ġcivilian":12832,"Ġverbindet":12833,"Ġannivers":12834,"Ġgelingt":12835,"Ġkaffee":12836,"Ġunentgelt":12837,"Ġverweisen":12838,"Ġacted":12839,"Ġendo":12840,"Ġarchiv":12841,"Ġenorme":12842,"Ġsphase":12843,"Ġinformal":12844,"ĠflieÃŁen":12845,"Ġsey":12846,"Ġoud":12847,"Ġbinnenmarkts":12848,"Ġiction":12849,"Ġzunahme":12850,"Ġequity":12851,"Ġbia":12852,"Ġjedenfalls":12853,"Ġinterventions":12854,"Ġestland":12855,"Ġologien":12856,"Ġvolkes":12857,"ĠendgÃ¼ltigen":12858,"ĠzÃ¼r":12859,"Ġbak":12860,"Ġumzu":12861,"Ġendeav":12862,"Ġweaken":12863,"Ġspitze":12864,"Ġobjekt":12865,"Ġfreier":12866,"Ġherrschaft":12867,"Ġcenturies":12868,"Ġtechnischer":12869,"Ġbonds":12870,"Ġrepresenting":12871,"Ġmerkmale":12872,"Ġerkannt":12873,"Ġgeo":12874,"Ġsoil":12875,"Ġzusammenschluss":12876,"Ġangenommenen":12877,"Ġconferences":12878,"Ġng":12879,"Ġresulted":12880,"Ġkonzip":12881,"Ġchester":12882,"Ġhardly":12883,"Ġsimilarly":12884,"Ġplenty":12885,"Ġjoining":12886,"Ġdifferenz":12887,"Ġpatten":12888,"Ġcot":12889,"Ġfristen":12890,"Ġengines":12891,"Ġnarrow":12892,"Ġmodules":12893,"Ġberater":12894,"Ġdargelegt":12895,"Ġzwecken":12896,"Ġwidespread":12897,"Ġesa":12898,"Ġamp":12899,"Ġblas":12900,"Ġspoke":12901,"Ġorn":12902,"Ġstall":12903,"Ġverdienen":12904,"Ġartistic":12905,"Ġunity":12906,"Ġzulassung":12907,"Ġlogistics":12908,"ĠgÃ¼nstige":12909,"Ġanwender":12910,"Ġanzunehmen":12911,"Ġ69":12912,"Ġmeets":12913,"Ġinenser":12914,"Ġprompt":12915,"Ġcertification":12916,"Ġielten":12917,"Ġunlike":12918,"Ġlieber":12919,"Ġentering":12920,"Ġisraels":12921,"Ġsteam":12922,"Ġphare":12923,"Ġvornehmen":12924,"Ġdirectors":12925,"Ġprincipal":12926,"ĠausÃ¼ben":12927,"ĠtÃ¤glichen":12928,"Ġkontra":12929,"Ġkontaktieren":12930,"Ġbalances":12931,"Ġpreserve":12932,"Ġbesonderes":12933,"Ġcountryside":12934,"Ġeingestellt":12935,"Ġpublications":12936,"Ġoss":12937,"Ġparlamente":12938,"ĠverhÃ¤ltnisse":12939,"Ġgipfeltreffen":12940,"Ġoni":12941,"Ġabsur":12942,"Ġmexiko":12943,"ĠtÃ¼rkischen":12944,"Ġvey":12945,"Ġlichem":12946,"Ġmoldo":12947,"Ġeconomically":12948,"Ġnamens":12949,"ĠpalÃ¤stinenser":12950,"Ġvariable":12951,"ĠkohÃ¤renz":12952,"Ġcomposition":12953,"Ġmusical":12954,"Ġbroader":12955,"Ġpassag":12956,"Ġstamm":12957,"Ġpopulations":12958,"Ġdeterior":12959,"Ġimf":12960,"Ġlav":12961,"Ġmist":12962,"Ġdumping":12963,"Ġernen":12964,"Ġ71":12965,"Ġeinigt":12966,"Ġolive":12967,"ĠauftrÃ¤ge":12968,"jÃ¤hr":12969,"Ġrecognized":12970,"Ġceeded":12971,"Ġisto":12972,"Ġdiox":12973,"Ġcultures":12974,"Ġlokaler":12975,"Ġbien":12976,"Ġcyber":12977,"ĠmaÃŁgeb":12978,"Ġsitzungen":12979,"Ġpublishing":12980,"Ġsuggests":12981,"Ġcious":12982,"ĠzwÃ¶lf":12983,"Ġerwiesen":12984,"Ġinf":12985,"Ġgeladen":12986,"Ġeuror":12987,"Ġrechung":12988,"Ġalpine":12989,"Ġreifen":12990,"ĠvertrÃ¤gen":12991,"Ġqua":12992,"Ġforderte":12993,"Ġalpha":12994,"Ġorganise":12995,"Ġdenjenigen":12996,"Ġpetr":12997,"ĠÃ¼bernachtung":12998,"Ġspolitischen":12999,"Ġweekend":13000,"ĠÃ¶kologischen":13001,"Ġouter":13002,"Ġkonzepte":13003,"Ġrust":13004,"ĠgefÃ¤n":13005,"Ġinterview":13006,"Ġguards":13007,"Ġilo":13008,"Ġbrochen":13009,"Ġschienen":13010,"Ġ180":13011,"Ġhorn":13012,"Ġdres":13013,"Ġagement":13014,"wor":13015,"Ġitals":13016,"Ġeliminate":13017,"ĠproduktivitÃ¤t":13018,"Ġlettland":13019,"Ġaffili":13020,"Ġklage":13021,"Ġausgrenzung":13022,"Ġassurance":13023,"Ġwhenever":13024,"Ġjacqu":13025,
[...]
